/**
  ******************************************************************************
  * @file    network_data_params.c
  * @author  AST Embedded Analytics Research Platform
  * @date    2026-06-20T15:27:12+0800
  * @brief   AI Tool Automatic Code Generator for Embedded NN computing
  ******************************************************************************
  * Copyright (c) 2026 STMicroelectronics.
  * All rights reserved.
  *
  * This software is licensed under terms that can be found in the LICENSE file
  * in the root directory of this software component.
  * If no LICENSE file comes with this software, it is provided AS-IS.
  ******************************************************************************
  */

#include "network_data_params.h"


/**  Activations Section  ****************************************************/
ai_handle g_network_activations_table[1 + 2] = {
  AI_HANDLE_PTR(AI_MAGIC_MARKER),
  AI_HANDLE_PTR(NULL),
  AI_HANDLE_PTR(AI_MAGIC_MARKER),
};




/**  Weights Section  ********************************************************/
AI_ALIGNED(32)
const ai_u64 s_network_weights_array_u64[6193] = {
  0xfd2bd4dbd5460f1cU, 0x1194813961eaf201U, 0xeacbede320f061deU, 0xe0cef20e2f3144dU,
  0xfadf62b3c26af2deU, 0x113f8166f9f8177U, 0xbed5b548efe75db3U, 0x9b0ffa111be03c04U,
  0x92f294460f7d9b1U, 0xff313d064ef881e1U, 0xff11f2de1f5a26fbU, 0xed28e4251704b9ccU,
  0xf9c134ba06e89a3aU, 0x3f1188fd505d1681U, 0xde21f23616670881U, 0x3b264ea8f50383fcU,
  0xb618c1a3381fad36U, 0xf04cb3d1b8ead9ceU, 0x1ace87c32aae99f7U, 0x26d4cd0f81a5272aU,
  0x3824d04f8122b114U, 0xcc243107ed41a245U, 0xe017fa065e9aee39U, 0xd8e52dd9d25d9aU,
  0xc917cf26401b280bU, 0xe2073f7f0be7600cU, 0xdc2e260e13530827U, 0xbac78cee81f3c3bdU,
  0x19f8301b16e53bd4U, 0x4c31593dde280034U, 0xbf7831e2e91a1c1fU, 0xea0fff5ffce7f0eU,
  0xdaddc653cb1f0a0cU, 0x31af32073785bb34U, 0xbdfa4ac8155f931cU, 0x131ec7d27fbc1035U,
  0x5d206659b194f9eU, 0x15249703f5a6f12fU, 0xfe81adf3c50d29eaU, 0xc99f32b5451915e0U,
  0x1ae30d2604dcd702U, 0x4707f8f102f409e9U, 0xe8dae6ec811ae2deU, 0xc718f1bee205b219U,
  0xa2d47e6c7fe0421U, 0x7f2ce3cdf1fda4eeU, 0x53f9c5f90de4e61fU, 0x4aece1232d0ffb35U,
  0x40ff5d758f103f81U, 0xd531d0e9ed2d226fU, 0xa1eff51b5b40511fU, 0xa74d2cc3f0f381cdU,
  0x4d07edd2bd8ad0d2U, 0xe11fece39947ee21U, 0x242900003afbU, 0x7740000313cU,
  0x2c323000031cdU, 0xffff333a00005454U, 0x1a37fffffe41U, 0x213e90000368fU,
  0x29650000a487U, 0x19430ffff57c1U, 0xff51abab9f2eefcU, 0xf8e2e5e753e0f02aU,
  0xe5117f048f7a9710U, 0xaea2f0a728e7fc7fU, 0x18ff361b9b4a810dU, 0x1ecea9cb26d81545U,
  0xcb3003d2123f0bU, 0x2920f0236703e25dU, 0x3fd7f636c9493effU, 0x81214ff9d87f1d53U,
  0xc46bdf59b37fe97fU, 0x5f068ce7864c3c79U, 0xeaca397f810df41dU, 0xfd18f77feed54f39U,
  0x7f9dd07e9c0a9be7U, 0xb27f7f54a75357efU, 0x9a7feb79bb77b758U, 0x3dd9f90581287febU,
  0x16fefffff60aU, 0xab8ffffeb8cU, 0xfffff820fffffb6cU, 0xfffffd5fffffffd6U,
  0xfffffb0afffff62fU, 0x743fffff8b9U, 0x4efffffee7U, 0x256ffffff7eU,
  0x98e80fd908aaf4bdU, 0xacd81f725e1dcd4U, 0xc3bce7e8f4fcf6f7U, 0xdccdea20d125f87fU,
  0x109bfd1387c235c9U, 0xc81f97820c23078U, 0xffda630e81e40ff2U, 0xec0e0f14cec83cf8U,
  0xdfc6f7e72585a4b3U, 0xf1c8ab030c478109U, 0xefda2cfcef10fdfcU, 0xd83d812b290ac713U,
  0xf1ca2cf87f083bf1U, 0xfb1104eb33fcfc21U, 0x42dee42af0927f62U, 0x2ef9c0cf952ff63fU,
  0x81b3fae3389cfaf3U, 0xf70ea3051ddf16d8U, 0xddd4be817fddfc9bU, 0x12a8e79e3cfff6ceU,
  0xcebd2fa3f7a697c5U, 0x89178152fb270513U, 0x5f1d40f01e9ede5U, 0xef81ac3d96c2cce5U,
  0x78f00000d92U, 0xfffffffdfffff798U, 0xfffffef1000009acU, 0x23ffffffafbU,
  0x36300000548U, 0x55d000009f3U, 0xd4f53214b50613f1U, 0xe8ba1c01ef0b330fU,
  0xf8b4e359a847d506U, 0xfc58da4023c870c5U, 0xe6388236ffb9e805U, 0x1d73081cd71945c4U,
  0x81b1eff7a0031ca3U, 0xe3c92c7fe5d4f811U, 0x2f8da698171817bU, 0xf317812f7f817fa4U,
  0x757f1c7f0b8197e0U, 0x7f7f59ccc80a6f81U, 0xc5d1dff9def50cbaU, 0xf7ef1c3ef424de03U,
  0x124c342ec820c77fU, 0xf68ea4e6380e1ce5U, 0x5e267f5f02dfd7d4U, 0x453639c2eb1a28c1U,
  0x151affffffc0U, 0x905000000bdU, 0xffffff96000001bfU, 0xa68fffffec1U,
  0xffffff52000010e8U, 0xfffffe5a000006e2U, 0x27fffffaeeU, 0xfffffbfdfffffc70U,
  0xbb0263fddf248110U, 0x7471ccf18f238adU, 0xffee478120ede5e6U, 0xf5e2dabf06ced51aU,
  0xf36e2a5815c401e3U, 0x85eec2c0a81ae2eU, 0x56e9fb980cd20c1aU, 0xcc3e9c7d7f224d21U,
  0x2506990b527f072bU, 0x31a2400c9cea1577U, 0x4f825e228d7c2f9U, 0xd21add0cc2b58110U,
  0xc073aebd2107f18U, 0x1afe0debf66becb0U, 0x121081e36bdf31e0U, 0x5da27d1f4d69db9U,
  0x3308181afcf1d1fbU, 0x5cf6fd451cf6e57fU, 0x7ac5f0e31d7f0507U, 0x31f35c0854fdf8d1U,
  0x55911513fe87f2eU, 0xaf7052cd0c4200dU, 0x90dfaeaf11120d1U, 0xe7038103e003fcf0U,
  0x167ffad2bc1de70eU, 0xebe2161f292fdde5U, 0xdabedf2e8719d9d4U, 0x29df037f4b1d332bU,
  0xb2001e1b128aee8bU, 0x1fee81e1bafffae1U, 0xf701fb02e5fc7fU, 0x11ff4d03f5f2fd08U,
  0x61d4d5811c1f0905U, 0x9db98cf7f8f154bdU, 0xacde05aff53ffb12U, 0xd37f26bae3d5b6f4U,
  0xb63421f70d3600ccU, 0x5ecc1af28103e412U, 0xe513342ade7f1611U, 0xe7d526e81112d705U,
  0x7f14223cd55c0a15U, 0xb35b58e9530e1d63U, 0xda20cc24cbfe3afcU, 0xf302ffeffb7f220fU,
  0xe906f721d8f917feU, 0x2ce1f90807407fe3U, 0x355addfec9edf40cU, 0x686a2db24a30c17fU,
  0xcff0a42b5162fffU, 0xfce9060b122fe681U, 0xdfbd8111c4f41a00U, 0x45b0f4c8ecefb212U,
  0xc5810a02bd5c1a1bU, 0xd8db0a05e1fdd6d9U, 0x68159e1a8108c910U, 0x49b30443ec5cf695U,
  0x5f14f32a81e7d8fdU, 0x11ad33601d0cfbdcU, 0x177034c48101041fU, 0x1af10b2fcff5f429U,
  0x7fef56d65bff6e36U, 0xda21703e897f6a9U, 0x8dbac921f91374f5U, 0x478eef07b0fc81cdU,
  0x3617dcb05ccd2fc7U, 0x81c9cbdffe39ebe9U, 0xa4aa047fddaaaedfU, 0x290223fc521a1727U,
  0xd8e3b91b16110950U, 0xf1ff2ed95b15dc7fU, 0x1914fd6c21f17ffdU, 0xf509f8f1fe1046edU,
  0xc7ef17530b81e8f2U, 0x3c1f2b037bc71645U, 0xece73153b3e5cdf9U, 0x52b4fd2f29f33881U,
  0xf0dd25e60bd6282dU, 0x1e13087fe6c0fe8cU, 0xfa0203e7e60b3afeU, 0xf7fbfaff0e7f22ecU,
  0x13a90000176cU, 0x65dfffff83aU, 0x158cfffffc44U, 0x1004fffffdaaU,
  0xfffff6f4fffff565U, 0x5eaffffeb08U, 0xfffffb50fffff9b5U, 0x193000014ceU,
  0x19c100000e74U, 0x3da0000021cU, 0xfffff85cffffec20U, 0xffffeacffffff1c2U,
  0x190100000486U, 0x2ee000016ffU, 0xfffffc5b0000020aU, 0x1a42ffffff4cU,
  0x7f900000122U, 0xffffeb3bfffffb14U, 0x1288ffffff01U, 0xfffffa4300000920U,
  0x14c6fad502eb2c00U, 0xef1dace6eac6e536U, 0x3143b4518fde60eU, 0xe803e0d01ce5f7b4U,
  0xe2aaf617e0fd7f9fU, 0x9bc021478941814U, 0x49c5f3c77f51d967U, 0x24267f3bfd01812fU,
  0xb125e812ee407f4U, 0xac7f0a6c81448e81U, 0x127f14faa30c11eeU, 0x2d140a68c032d732U,
  0xd4b955de07fc12e7U, 0x7e41ce9320310afU, 0x7feeedf3f301c11aU, 0x10d6df3afb2af65dU,
  0xe11f10e1c8181a8U, 0x1c1a08b27fffa401U, 0x6a2951193bc0e7d5U, 0xf942813aecfda328U,
  0x20e867f81d4cc7fU, 0x81817fa59300a081U, 0x745f89ce207f3b0aU, 0x813c7fafa47f994cU,
  0xbefa6f1b287f7665U, 0x17437f1a60d8cc2dU, 0xcdfdef7f3c58baf2U, 0xe281d581fff92de9U,
  0xfb81f1ccabff7fb6U, 0x41f83b7f01ff3150U, 0xf9ff01030770018eU, 0xfa0f141201efeb16U,
  0x8101ce0605023bfaU, 0xe00e4931060efd11U, 0x20ea10e1ef0ddf9U, 0x7f4fb3507f2d0b1U,
  0x34ec1a0bf3d90af7U, 0xf744e6191afe5acbU, 0x58f7f712810a037fU, 0xfdc64a8a6e021a44U,
  0x81f016f6fb8181cbU, 0x907052dfd0bfff3U, 0xbec1f6cdcefceb81U, 0x1fdbc0ccaf1fc69U,
  0xe9d0040ef6f62a53U, 0x5dbffffff5aU, 0xfffffff600000346U, 0xffffff92fffff8a5U,
  0x126ffffffa0U, 0x139e000002afU, 0xffffffb5fffffff3U, 0xfffffe40000001c4U,
  0x1000000774U, 0xffffff6000000297U, 0xfffffce7ffffffe3U, 0xfffffd9c000004d0U,
  0x5be0000003fU, 0xffffff8600000014U, 0x58effffffcaU, 0xfffff89600000afdU,
  0xffffff5d0000010aU, 0xfffffef2fffffe15U, 0xfffffff9fffffd21U, 0xffffffaffffff73fU,
  0x3effffff23U, 0xb1b05b3df2e3218U, 0xe96d7301d534990bU, 0x582f1af92834be02U,
  0x2e42e4cc1f597f16U, 0xe62f3315f502f2dfU, 0xf483a283042a1d98U, 0xe7d10a08d8471526U,
  0x94fe0afbb2ebedfdU, 0xeafb07db5ab1d9efU, 0x2b39dce47981fcf0U, 0xc6391bf85ed7caaeU,
  0x2807dbb344291bffU, 0xf81c09ea00142ebcU, 0x23feee2b4fe8200eU, 0x522b221434f17f1dU,
  0x41cd4903265cece7U, 0xfbe21b46fc1cd5efU, 0xf07f25e5eb4600e5U, 0x5f61482e03116e9U,
  0x2c0dfdfc03ec15e2U, 0x167d3581283d3ec0U, 0xb0e241affefa1ddU, 0x6c0cda062016f307U,
  0x5f6ddf8fff176462U, 0x3a3f74551e5d14faU, 0xc015b1edee1f3c59U, 0x8be2f28fa3d126eU,
  0x814817ff91a06008U, 0xe5f1c43fcf924fe2U, 0xf5f9ca1d12b2fa1aU, 0x34e42a13facd3be9U,
  0xf0f1adeb2d796e8U, 0xf52504bc0eff9ff8U, 0x140c0629bdd82168U, 0xe20b042f7ffb1405U,
  0x2b2ddbb3daa1cc3aU, 0x41c0f5e3d0168147U, 0x1bba1d2a01e03204U, 0x4bf2189a0ae2c164U,
  0xf9dfc2ec5a421906U, 0x85dacfe907eda8a1U, 0xf8ef48d910cff328U, 0xc8c4ecf28ef72f17U,
  0xa40f7fb30b20481dU, 0x5d5ca53ddfd2c823U, 0x10ff259ffdf0a3f7U, 0x1a0cc6f1e2d923faU,
  0xf69ede14f80f361aU, 0xf60aef0215fc8110U, 0xea030203a80401f9U, 0x4d3059e71de5fedcU,
  0x327fed3a0e57192eU, 0x3b0a16ce1046dd3fU, 0xfdca12ffda541a42U, 0x4418f9222932c114U,
  0x193e3b947fbb5909U, 0x6015f1f54df6e942U, 0xed04e6cda11421ffU, 0x1754ed8f2a4d370eU,
  0xec2526ef179c1e0aU, 0xb12fb1cbd15403bU, 0x237f5bdffd3fb0aeU, 0xf6f0f451f948faffU,
  0xf74f10efae69bd1aU, 0x4923e8111f19130fU, 0xe403171acdf31aa6U, 0xb36d14eeb61aedceU,
  0x1e118fd8ee30eb0bU, 0xe018031154f61cc3U, 0x18e819098130e313U, 0xf29e1a1602f0b0dcU,
  0x16211f1503a854f1U, 0x343ff890024db0bU, 0xdffc18534aede9b0U, 0x81d4df89200ae619U,
  0xe2ea1c087ff8eaf0U, 0x266dffe2071d0822U, 0xd61822ee096704d0U, 0x23e9e30b034a1308U,
  0x270beb1009d3f70cU, 0x81e90d112312562bU, 0xe4de05c5cc055c1bU, 0xeabbf493a2b80919U,
  0xe37b5ebc23fd736U, 0x2c1f1474efad4eeaU, 0xdcb87fcc23fdb6b9U, 0x962bbf80809c393U,
  0xf735f71c1f3af2bcU, 0x92117c6e54b3030U, 0xee090bd30b24fbe1U, 0xfe12f1c40334c711U,
  0xfb6c16032a25fc0eU, 0x4b2d1ebe1be3f07fU, 0x2e0b04f79526f23cU, 0xe660750c29250f27U,
  0x256711d01ff8a9c8U, 0x1affed04162930ebU, 0xe4c6f13e54343626U, 0xb7f490020f20efeU,
  0xfa0b1db3d8d0ffe1U, 0x14eb27cf3600f0f9U, 0x709f6f7362b1503U, 0xca2811cbde2bfcf6U,
  0xeb322a0318507f1aU, 0xc0410f80ee4f907U, 0x7530251e1035dc39U, 0x974e89756f4e7e5U,
  0x60e3819551338d29U, 0x2f756624a147b565U, 0xd4d457981028333fU, 0xe462faf320f009aaU,
  0x1c303acaff01fb81U, 0x471be59910261b25U, 0xcafb66fa6801f3d1U, 0x252c25d8ea3116cbU,
  0x20f6fd05fde3f5f0U, 0xebff0fe6ea7f2734U, 0x2714d2efec25cffcU, 0x1ae502fe0c0e0020U,
  0xf7d9e01cfcf20419U, 0x5f1b7bf07c6fc16U, 0xf7052cf405affafcU, 0xf1e44aa2070e2914U,
  0xfe2830e30e24256fU, 0x1e7fc5eb39d9f9b9U, 0xd0def81bbc441cdaU, 0xef7ff846121bcb32U,
  0xe41b1aeaff7dfff9U, 0x30f7f0ff0f410248U, 0x29cd2efc08551ebeU, 0xf0a2cd0d632e2401U,
  0x297dc519efe9cb00U, 0x81dbddb3f45fb1beU, 0x201de9f18f320ef4U, 0xbbebce5ef210e1eaU,
  0xe5c45fadfdfc5cd3U, 0x1040371bfd004eecU, 0xecfc00bbdfeb7ff3U, 0xed1a1dbd5fef2ef3U,
  0xef00c1f911cbb7faU, 0x24664ca74fd9bf93U, 0x467f1c03efc7c54cU, 0xf20595bb34e7f5abU,
  0x4813aeb00bf514c9U, 0xc3e11cfad844e3efU, 0x8d60ba31a1a04c2U, 0x3d3481cdfff61940U,
  0xe401fbc9dc653240U, 0x1b71ddffdf5932e0U, 0x363550b1b2f430e1U, 0x325ee8093a81d4f7U,
  0x570332dc3f0c07edU, 0xe8fc19bde33d31e9U, 0x1d05fdce1905101bU, 0xfee9e9e9f502fadeU,
  0xf716c9df11bcda05U, 0x22f5fee22ff37581U, 0xe3aedc021410b227U, 0xeb44449fe221e814U,
  0xbae759dfcb133303U, 0x16d60af12cfe4d0aU, 0xa1afe030db1dfecU, 0xdd10e2c80314a6ebU,
  0xf93105e5eef43212U, 0xb5127fe61d0013a0U, 0x1ae91cc14159ff19U, 0xedfffff6363bd308U,
  0xeb1d0402ffe529cfU, 0x7fdcc12bd9d21e02U, 0xbc923f0fef546c7U, 0x440506f6231ad404U,
  0xf9d617e4100336f2U, 0xfc0303d1fa42f021U, 0x505e74af11c0f2bU, 0xc4ed7fcee1f52be2U,
  0x88d5ab04f5e1f1efU, 0xe7e9ed65f5a75b2bU, 0x16bfa6f4dfa4371aU, 0xf12240b9af229a13U,
  0x8115e744d7b00cb4U, 0x3f1645f8fb1427c8U, 0x23e2c21a3a096b8fU, 0x12defd0dea12940eU,
  0xe10deb4b4be42bc3U, 0xec49bc81d2eba133U, 0xef2a99f113e2a16U, 0x3cb0dba421077f01U,
  0xfdd824550fe4dc04U, 0xd26cc33d90ada23U, 0xce1c18f104c31d06U, 0x99d71b08caa2c14fU,
  0x196afe2418fbd90dU, 0x3f4d064c101db8b2U, 0xd7b82124e64bf0ddU, 0xec37d0e98144ff2bU,
  0xc7f25ccf658faafU, 0x102dbdc06cb04faU, 0xc401df060400c1dfU, 0xed30bcff0d3b19f7U,
  0x6b161c03e5f40ceeU, 0x156ffffffa32U, 0x17cfffffea3U, 0x9f8fffff8d8U,
  0x882000004b1U, 0x783000009e6U, 0x57efffffbd8U, 0x182fffff6bbU,
  0x11900000448U, 0x79900000756U, 0xfffff922fffff6f8U, 0xfffff93400000053U,
  0xfffffbda00000063U, 0xfffff716000005b6U, 0xffffffa30000100dU, 0xffffff5f00000acdU,
  0x724000003a3U, 0xb400000105U, 0xa4cfffffc28U, 0x2dcfffffdb4U,
  0x42dfffffe11U, 0xf3f321ec1dfbe20aU, 0x10dff496e2399e0dU, 0xf90fdd0dbd113881U,
  0x4ae9aa38f4f06cb2U, 0xcbc3fa11f3e8eff0U, 0x1e87de0a16bd81beU, 0xd422fca07f1c81d9U,
  0x293eecb0c1215d6fU, 0x3b815881f00f0a7fU, 0xd5e0ebc897e8f8d7U, 0x27230f0097bde4f7U,
  0xdb62a1840474a05U, 0xc24ad7ab204326feU, 0xd918005a81f90e68U, 0xf55b0b298151cae4U,
  0x7f357bfe0a0120ceU, 0xeb2d3f813ab7c671U, 0xf5974564d2cd062bU, 0x59021fdcd7e12100U,
  0xe7f5e8e05a161c34U, 0x708fce7fe8bca481U, 0x811f7f1271b78d0fU, 0x7fb55516b9c633d0U,
  0x1d9a8119cf917fe2U, 0xd80a817f2d543fd4U, 0x513aa31c81d13aa2U, 0xdd81052451fb7c81U,
  0xee817f81120f01f2U, 0x8135e9eb60810539U, 0xffe7d6c4e57f81c8U, 0x112d7f10f5e2f435U,
  0xd2d199108cee431U, 0x424d41c9ee4f11eU, 0x322007f0a6eafbfdU, 0xb556f61e3a075d59U,
  0xe81db6f2f81d567U, 0xf7b70e65ed81c921U, 0x13fbb85f7f8181d4U, 0x17b22361490a4406U,
  0x817fd4c002402c7fU, 0x3752a8fdc03c2a65U, 0x10a1ee300b2b46b6U, 0xf025bb98eeb6c7f8U,
  0xb13308c37b1d1612U, 0x1aece9083cfef8f7U, 0x8ed000007f9U, 0xa5000000fe1U,
  0xffffff60fffff56dU, 0xffffed230000067cU, 0x7f6ffffff3aU, 0xffffee55000007c8U,
  0xfffff68c00000b6eU, 0x8aa00000b59U, 0xfffffdeb000000fbU, 0x75d00000665U,
  0xfffffef100000626U, 0xfffffde7000003f0U, 0xfffff193fffff6a2U, 0x18100000bcaU,
  0x1c2fffffe90U, 0xfffffbd900000672U, 0x86fffffc75U, 0xfffffe85fffff27bU,
  0xe0dfffffef6U, 0x14aafffffc03U, 0xf43d1c3c53b6cb7dU, 0x81f61596e0f92bd3U,
  0x28152730bad12410U, 0x26d108fcf4a6cd21U, 0x99fdf9e7b7dd4804U, 0xc3aeeb290fc511cdU,
  0xaab909376be8c107U, 0x4caec1f5814154aU, 0x7da616314260817U, 0x8116d533fdfde6f7U,
  0x12f206eef106f5fbU, 0x33aecc1d29491c2aU, 0xf011cd0e08290810U, 0x22ff0b07e8d89f18U,
  0xfc2f7f1efd050edaU, 0x2431bf046b521ebU, 0xd422f21ae9812316U, 0x21fffb2addd5e207U,
  0xe600e33a02833bcdU, 0xd34ae4231f342c14U, 0xd7a92bf8f7a4437bU, 0xd41f21f0fb07f24U,
  0xf000ce5b6bfff10U, 0x53b22d2f19f70138U, 0xc22ed45199257509U, 0x3f01260ededfec53U,
  0x36d610673b313642U, 0x4f0ff8555afc72feU, 0x3b63e716fc6afd21U, 0xed415de981731037U,
  0xbaa6fa2021d4dfbbU, 0xbcfac436e9ccfe14U, 0xda95810509c4eef9U, 0x33e0c9d915d4ef71U,
  0xb0e1b1f8effad6faU, 0xeb0f2805c2c9fdd6U, 0xbde50ff914077f3cU, 0x6434db29de5b43f9U,
  0x23e7d320e1da1fdbU, 0xbc001303fc122ac0U, 0x15ee00c6a6b428bbU, 0xc430ef0e14e513faU,
  0xfdf6151726e9f5f0U, 0x7ff81f194fe3b52dU, 0xce10260ee6b8fdcdU, 0x2f3d0eb0fef60cbU,
  0xa5e54a720ba5def6U, 0xcfebafd0c03d2f8U, 0xeff42501280d8109U, 0xfe3de6e5f3c3fac7U,
  0xf80ad707e0341832U, 0xefe612fdf67fb1dbU, 0x2bfb14e0164009f7U, 0xaae00301b50c2305U,
  0x38e4d8f946c5cadcU, 0xf6d703cab2fb17e7U, 0x81270acfe9eaaff5U, 0xf1ee1fa83535224bU,
  0x8bddef25b150e10U, 0xfc0f8efc03e9d61fU, 0x2a25ad95d311451eU, 0x3daf83bcb325f400U,
  0x21037e56fc413902U, 0xd354378b810b97f9U, 0xb42117e7dfc0c3ffU, 0xb71e2f22dc27295eU,
  0x521b24f4eb0a5618U, 0x35138109d5e304e6U, 0x15ecb8f818e922beU, 0xf6f939a22b0104f1U,
  0xf3bcd370607f08f1U, 0x645257ddbfec17beU, 0x1329c410cf42df8bU, 0x5f8806acd76d9f9dU,
  0x2ee840fbd8de8cceU, 0x551be04ffc7b4b2aU, 0x3e3bf1153e78bb03U, 0xd80b0a11e51e0bfbU,
  0xae4fb00fc81e919U, 0xe74cceef8acff2U, 0xa4874cfcd9e5ddafU, 0xb6e9ba3f30cd2842U,
  0xbffc19dfe0a6bd11U, 0x55490d2c07f726ecU, 0xf5eb81e2141411eaU, 0xe345e1fc0b093bfdU,
  0xaf2cec11efc84905U, 0xf6120d59fe810720U, 0x2a48fe29078bea88U, 0x2402b60fc9e116c9U,
  0xed2257e341a7cd07U, 0x81dbb91611d716f5U, 0xfd002af5f0020aU, 0x1eb53a5405b0fc3cU,
  0xd2fc1333d6ea1200U, 0xe31dff33d6b925e2U, 0xa2301e20ed19fd05U, 0x35b819b21b240014U,
  0x24d933fcd1beab19U, 0x81e7d21deae7e9e1U, 0xf1f1127cc1c51deeU, 0xd579b739d0cd0e1eU,
  0x1fd3055bd3d21611U, 0x51f0f7620681aef2U, 0xf4e5eb21d6cd079aU, 0x4b1edff9de08c59bU,
  0xe9f5f61f3025bce1U, 0x4f335f9d19e06f53U, 0x7fbd46f73a175bf9U, 0xfbee9c15d0de11b1U,
  0x6c30c2d81a7dfcfU, 0xc432b8364bd9a104U, 0x2a400dd1fb3522eU, 0xd6ee4f03fe2c0e10U,
  0x9e0e36f5c5df10e9U, 0xf6231cac22a593c6U, 0xe6b589f74428fb38U, 0xc81ee3214b111dU,
  0x341602161247815aU, 0xc9ac162ac8da3ff8U, 0xd9dcf281338d1787U, 0xbeeecabf289be9ecU,
  0x4bcffbe98062660U, 0xfab34dead6f59b0fU, 0xd8b01c40acc8e421U, 0xc722613c5d312606U,
  0x1eea3591d3b4afdeU, 0x7f231107d9b24c03U, 0x295034b4f11ae9fdU, 0xbae7ebe3134b2125U,
  0x1c0ba32f9c0dbdaU, 0x93240e34c5e8afb3U, 0xe7c814044bbed113U, 0x10924e1abefe03d9U,
  0x30f3a7ff0bb1d13U, 0x83003c05efccc2ceU, 0xcb04d47fa11570f2U, 0xcfdd1f224b1da18U,
  0x1318d827eb88ecc5U, 0xbcdff5e9e91530dcU, 0xb22429cfd8a1c1c0U, 0xdafde97ffb2cfce5U,
  0xff08b4bf182bd987U, 0xe169b9f9b5844602U, 0x2e025fe4d70412f1U, 0xf1e31c8211e81d2U,
  0xd9dec9dcc7d9cd01U, 0xd002b16031831U, 0xf5edcce31ec7cdfeU, 0x1f0b78a8d7d4e9ffU,
  0xd21331f3e081eb14U, 0xb149ee4415f0150cU, 0x70225ae3ce220fdU, 0xe10217d43a10323eU,
  0xf7e3d1f21829cdffU, 0x16f5e03f080d1ee1U, 0xa92ee767e0fb0cf7U, 0x1ebfa033b03ea28U,
  0xc7f71e0c41dcdcbeU, 0xdc27fd8d21cfba4U, 0xca36315305932c50U, 0x8133fe32cda6f1d1U,
  0x4fe2f88c2ceff419U, 0x35f514720aea3f07U, 0x999d05ecbcedaa20U, 0xf7fe333f08c6ddfdU,
  0xfb20e042a9c82721U, 0x320fcc68cbd4d750U, 0xc106ed3dac093481U, 0xe0ff0d63f0e00a59U,
  0xeaa47f07f6cdd8e8U, 0xae1d2b7d35c5362aU, 0x6f8e1a51bb000e9U, 0xf6f2cc0002fdcdfeU,
  0xedf0f732bdbbc2ecU, 0x2298b9b58f48d074U, 0xb9fafd1bdbe94ae5U, 0xcd37452389b2c5feU,
  0x767f7ee7109eea1dU, 0x3ba5fb019396a81dU, 0xdce7f8ee811b1b5dU, 0xf50a195608d8e3f2U,
  0xcacc08afadf04011U, 0x3be3161f30c3ccdbU, 0x3d24fe1af231ed99U, 0xe0c4cface6fe1c58U,
  0x8eda9d9146adcb3U, 0x81393bad2bd6341eU, 0xf4d17d12040a9a5dU, 0x1e2fcc20138ad560U,
  0x320dd52dff89ff0dU, 0xbbe20881eab5c8a7U, 0xf853ee89e2cd2701U, 0xea425f3e5b20656U,
  0xca00f005ced302feU, 0xebe1040de7b505abU, 0xcdebe10f3bde0a7fU, 0xf7b9e5230b1bcb1eU,
  0x64ca46250894eee1U, 0xb9f3130df3e003cfU, 0x73600000fe2U, 0xea0fffff9faU,
  0xffffd8ea00000252U, 0xfffffe9900001500U, 0xb1a00000a25U, 0x13fffffffec7U,
  0xfffffb94000008c4U, 0xffffed67fffff3b2U, 0x12cf000018feU, 0x13c50000173cU,
  0xffffffa100001237U, 0xad000001777U, 0x21e00002f71U, 0x1f18000015f2U,
  0x9f00000123bU, 0xfffffeed00000e29U, 0xa050000162bU, 0xa0e000017b4U,
  0x6960000061fU, 0x156e00002107U, 0xb33531483ce146f2U, 0x2403d92a07cb6c9eU,
  0x4ada0c141613e9e6U, 0x30a01021230af5d7U, 0xd736f610e1ef0e4bU, 0xdffa091f7fa16cf3U,
  0x145c7f0a1fe419daU, 0xa50e497fdc8102d5U, 0xee7e290ce00b128cU, 0x927ff41a50d7657fU,
  0xdc47f22e89d110bU, 0x4bfe3b8112fb9e81U, 0xcdf22f6695e3f6aaU, 0xdee41fef1e0cee3fU,
  0xfc07c6f40ee23604U, 0xd45f6903ebe80ff9U, 0x60c03e4cebb3efeU, 0xe45fdc0d1604e950U,
  0xe1db437f0b14f3e7U, 0x7ae47f7bcd03c20fU, 0xfd2476b828d8adf2U, 0x1ee170cc6e0fa221U,
  0x7fffe41b27b12af7U, 0xab7fe4e7ad4c13a9U, 0x71327ae42a16b23cU, 0xd88170bbeffed6f2U,
  0x59bc1d3de5e4e816U, 0xe1d04b74f0137bdcU, 0x56c1811aea0639f8U, 0x81273afd1ff07f9eU,
  0x7e91d36281ffc1bU, 0xeee4fbe4cb81a31eU, 0xe27f090ce6f8a011U, 0xe009ed4581e50f58U,
  0x77fe297f0df3b80cU, 0x81126c813e7f817fU, 0x7f81112481118b05U, 0x5a10ad281acfce7dU,
  0x7f3adcc4247ffe81U, 0x5525db117ff0dae4U, 0xd5f728cb932ee91cU, 0xff2c550ccf097f3fU,
  0x65de81047f397f7fU, 0xffc738f1590f7fd9U, 0x99338de43e8146a0U, 0x713fffff7e9U,
  0xfffff6f400000523U, 0xffffd43100000da1U, 0x13940000025bU, 0x75300000948U,
  0x9aa000012abU, 0xfffff16d0000053dU, 0xffffec1400000564U, 0xfffffeebfffff75fU,
  0xfffff9fe000011c9U, 0xffffff35ffffe437U, 0xfffff647fffffa9cU, 0xfffff56d00001b84U,
  0x32cffffed19U, 0xffffff80ffffef7aU, 0xfffffb67fffffd43U, 0xfffff9f8fffffd71U,
  0xfffff0650000106fU, 0xfffff442fffff5c9U, 0xfffffd9efffff281U, 0x482b34df3f5cdb3aU,
  0x4c51e7caf6ac2ad9U, 0x195d0c8124a206d6U, 0xdc238a4c32facbd4U, 0x3debe652b8481913U,
  0xfa313210b7dc7fa4U, 0x8f3ae77103051119U, 0x2b3357323e1aed35U, 0x29a21e9a3e969a15U,
  0xb3b09e5fb8ad7a64U, 0x1bfb1718ef19e4daU, 0xe7c7f63cfbb132d0U, 0x262a0de5f1082713U,
  0x15aadbd5dacf8132U, 0xedf1ce292d0b14d4U, 0xf42315bd24cb454bU, 0x1411efff4ca813d0U,
  0x9f9c4267fea12b7U, 0x22227d8d22540e8U, 0x206c728205cec28U, 0xdbd5b2d44dcf21edU,
  0xfdfc163af68c460dU, 0x1bcbb40ea8813424U, 0x307022dbcc6df91U, 0x230b0ef7143df9eaU,
  0x9845fe2e0c4fff15U, 0x581416fe0ae915c1U, 0x1c53e13eaa8121caU, 0xfb22bac8124f184cU,
  0x17c7b231c8fbb738U, 0x64f7ca8122062c14U, 0xda98e6371956dafcU, 0xf417db08fffb0c08U,
  0xd2e2b520be34e4f9U, 0x1ff6cf40cf0ccc09U, 0xfd0eb8d63a1ce381U, 0xb6f74e373aec10f0U,
  0xe5e7d316fbf82315U, 0x334603542fbb7ca7U, 0x5ae3111cbfdb1f3cU, 0x4502810bcb757208U,
  0xb6e515f82b141416U, 0xda3858573610c458U, 0x43ff0c2412b391e0U, 0xb7d5b1e6d4d507e3U,
  0x27e5a44f437fc62cU, 0x2d0f01052bdbfdf1U, 0xe1c4a8e4cea3b627U, 0x2c0d1c151f34eff7U,
  0xf124ef3aa53f0a08U, 0x672f25ebf7c615f9U, 0xe21c08ec4fbcf5c2U, 0xf337f60309e822f3U,
  0xfe35fffc1dc5f481U, 0x78dcd9d3730d14faU, 0x31e0fe84b508307fU, 0xea22b0dc003e1847U,
  0xf90606f7becf0a3dU, 0x39072805fa4012d7U, 0xaec61c42e9e7262dU, 0xd7ec431b1daff239U,
  0xb4e5fcf1e5b89e33U, 0xd7cff8ff5557fb12U, 0xe10012ca04117f3fU, 0xd1dc501dc838b59dU,
  0xe62208c7079119e4U, 0xdf327d7fee0f6b3U, 0xe90bab7fe1ea12d6U, 0xd003f01cff042d1fU,
  0x9e90b33e6bae0b7U, 0xec25b4c7f1a6ec01U, 0x6df29dd3d59c81eU, 0xcccfb809ea14bf1aU,
  0xd816cddc1804007fU, 0x18e90df4f96014d4U, 0x2311f3f604fd05e2U, 0xed862ebc13b235baU,
  0xb581d8e5193b1e25U, 0x127400450d285c4dU, 0x240e1500eb2efadeU, 0x9d35052ae1f09d3U,
  0x96af52cfd2e3dffU, 0xcd300f3221447f13U, 0x1df6d422f81603f7U, 0xff2bc20f0b9efa13U,
  0x4030a27cdde13c0U, 0xf3e303f0e113dbfeU, 0x272bc246205726dcU, 0x42ed6e5ef03d110U,
  0xf80e09e17fcfee00U, 0xca3c362a9c3d4150U, 0xe55ebe5553e9103fU, 0x41fae3640c612c24U,
  0x47f0d2916aff806U, 0x3413baebc9533035U, 0xebf4df3010fa0e4fU, 0x26dd810dcd1e4cd5U,
  0xf09ec0831f645e0U, 0x162e2f495f04d30fU, 0x3fc89c1c9431d6e8U, 0x477ab98114a8f9e9U,
  0x81480135a92b1cebU, 0x456f59ef2f5cc13U, 0x42dcafc5fbfceffdU, 0x3c1aea1aacd3181cU,
  0xdd2dc1c3a6d81096U, 0xf47f321923cf01daU, 0xe238df27e0b7de40U, 0x44e415fffff6a6a5U,
  0x977ec547e69ee095U, 0x191b1810c0694c1cU, 0xcbcef40c7ffa061dU, 0x181f5740f1a7f3ffU,
  0x60df3f7f0a1ebdaU, 0xf4f0faebc1d51236U, 0xd47f340e03f11e2aU, 0xef1f62e8406d9fe4U,
  0xe53816321cca61baU, 0x4f54901f10d47a7U, 0x5c84f412215839adU, 0x11dc1ee4d2e00d33U,
  0xfbef0703dfe504dcU, 0xfa350460df81071aU, 0x26fe0d33cde5f329U, 0xa29b7f015e91133U,
  0xd5e1cc11becdcbe8U, 0x3fce0bd30b143b0fU, 0x21a6f929c7223816U, 0xfb60fe2042816d14U,
  0xebb611f0d88d1b3fU, 0x43faf71dbaf3d7dcU, 0xe431abe912fa03f8U, 0x2e09cee535c142d9U,
  0x7ff81dd4d4f2baa8U, 0xebc3bd4f8ec901f4U, 0xd3dddbfecce42306U, 0x1e13b32bb4694821U,
  0xd416cd0f56d82adeU, 0x311826007f171dc0U, 0x34e6d1000e1bf2e0U, 0x18ed4345e48110d2U,
  0x11dd951b1d1de301U, 0x3d060053d2004b2dU, 0xebf43724f45befd6U, 0xbfd9e8fa0fb8f8ebU,
  0x24dd9801f52bb21aU, 0x290af9187fffcab1U, 0xfcc530da0afb0a09U, 0xc3ce4330007feceU,
  0x13eaf32e14eff313U, 0xb981edbea0f13515U, 0x6f71b32d8c22504U, 0x1a2d3d577dfc0616U,
  0xfad21a2645f413d9U, 0x34f8dae515a641beU, 0xf71712c515e90bf9U, 0x95ec0e452c7f3220U,
  0xe66ae5dcb022cff7U, 0x5c005935568daf92U, 0xf83bc1d4ff85c431U, 0xd070ae3dece00e6U,
  0xea0a04fce6c41803U, 0xeb0afa080ce247dcU, 0xf12dbd049d05e281U, 0xe28f2f4e5250011U,
  0xed23b2b1e40de3eaU, 0xc116f6eb011dedc3U, 0x761939102fbd013fU, 0x12e3dd1d071ef6fdU,
  0x11c8e223ea1c7fd4U, 0x1965fb0ce4292bcbU, 0xccea0a2281d41196U, 0x3e44cad2c2c768a8U,
  0xc30e193319b202aeU, 0x65c5a130d10811fbU, 0x170d2ebde7fc5d38U, 0xf739781424d45091U,
  0x1fc1f7f3bf10faU, 0xfca8df7ffe3ce7b9U, 0x16c4bad100d8dbfeU, 0x3821f4cbe500fd15U,
  0xf4e0c53717f93b12U, 0x1135040935b047ecU, 0xf0e6f70f171524fbU, 0x3081fb17ee0e4b10U,
  0xdd14ed29bc011c41U, 0xc20ca12cbf08fcf9U, 0x40fd420373c3fb2fU, 0x48e34ee54126a781U,
  0xebf46025f4ac39d8U, 0x3909ea12c1054047U, 0xee4a8139dae5f9d7U, 0x664e6efdfa305dcU,
  0x1731ea0b275623c1U, 0xb3f0d1b1e9cfdf22U, 0x5136d13c27dee292U, 0xd9f7f7115a244981U,
  0x4a4c1df2e98b12beU, 0x11fd103936e758e7U, 0x60bbc41f09e61cd7U, 0x755000004ccU,
  0x800000b21U, 0xfffffe6d000010f6U, 0x16d000002dbU, 0x38a00000208U,
  0x7df00000117U, 0xd17000003e1U, 0xfffffd710000071aU, 0xfffff8eafffff0e8U,
  0xffffffbeffffe0b4U, 0x15c30000100cU, 0xfffff14800000298U, 0x91300000e5cU,
  0x58d00001e8bU, 0x62d00000786U, 0x7e8000007bfU, 0x94c00000edbU,
  0xa87000013a2U, 0xd7f0000013dU, 0x6b20000101aU, 0xdde42f035bf8c014U,
  0x91cb2cc3069b2b43U, 0xfe0ac6f49db54d1fU, 0x223aefbbd0f4b093U, 0x4b213bc7069f3045U,
  0xcfe230167fdb971fU, 0x81ec2ab6ed955865U, 0xdc309fde8d81263cU, 0x3bf87f81d6d48196U,
  0x7f3d4d27ee81683aU, 0xd2f11a1e3cc9a922U, 0xd8d204e5cbe2662aU, 0xbd1cd9dfd8d50becU,
  0x29b110a0cedfa62dU, 0x3f2e2452e6a254fdU, 0xa43ee92f25d5aef3U, 0xceb551e10ba66150U,
  0xdd5b21c6cddd70e5U, 0x3d467cf2aec1ac81U, 0x4f505000d5101b54U, 0x81691b751e9081e0U,
  0x9f077f81b6817f7fU, 0x817fae81810e7ff4U, 0x7ff55ddd81868df7U, 0x7e7f7f5bc7047f7fU,
  0xa1333b5911818ef0U, 0xcd3e41a981b52338U, 0x1032819ca43c3a0aU, 0x6381f5d296b6b857U,
  0x5742407fdde17c46U, 0xe55a811cb6d601bcU, 0xe10f3cfd04f16f36U, 0xc14d4aeb2d325fecU,
  0x3015680810d3c7b6U, 0x1a492bf3c10b0c1fU, 0xb37fa77fce87d881U, 0xa97f5db99db0525dU,
  0xd87028b6e0616481U, 0x64d5c9f1c981870dU, 0x2971423681223851U, 0xc440db71f49eb8a5U,
  0xaf543da085c3dc36U, 0x1530c2cc9b3d24e7U, 0x4f9a01dba1bcd164U, 0x1a372152ac183550U,
  0x42b300001d7eU, 0xffffef6200003cf2U, 0x69ffffd1d3U, 0x308fffffde5dU,
  0xffffd7b8ffffdbc1U, 0x3382000037ecU, 0xffffe31700002c0dU, 0x36b0fffff1dbU,
  0xffffde9c0000051bU, 0x388efffffb77U, 0x19c200003f89U, 0x176effffd27aU,
  0x4e0c00001761U, 0x36950000462cU, 0xffffdb0d00002b8bU, 0xffffd7b600001276U,
  0xffffe723ffffda90U, 0x24dd00001718U, 0xffffd677ffffe6f2U, 0xffffd9c8ffffe64dU,
  0xf9c124ff091944f5U, 0xe3cc0508d9d4e0d8U, 0xcaedbbaef6cffaeaU, 0xeaf70afff0cec8e7U,
  0xedceb4fcf9fdf97fU, 0xdbbff7ef0381b7d5U, 0xe5e1fb4926eb131dU, 0xf5d31a9f90921100U,
  0x695c0a9bcc2e0b32U, 0x5cc5d1d5f5941ff9U, 0x811835d9d7ceec35U, 0x40fa1a2beae7e00eU,
  0xcf2a2d96c3e4c917U, 0xcae4d411e3ab38b9U, 0xffdb18e90e1068d0U, 0x31a50ac501d7cc00U,
  0x218cfeb8cc29dfc4U, 0xd1f0d81816e7660cU, 0xe68118a830e76524U, 0xc6dc1d2621171ac2U,
  0x2c3bcf3c9f530758U, 0x2af4350910fb220fU, 0xd681ca595e0cc622U, 0xddf219fd4c3b2debU,
  0xe4fe5402aff216d2U, 0x3ca8e3c6161bea7fU, 0xce35d2d702a44cf2U, 0xf322bf3ab917bcf1U,
  0x12f719c553330a81U, 0x14a235c4333febe5U, 0x1e4ec4a2ff6fcf0U, 0xdd23c6ae01ca3ad3U,
  0xfef7e308a7300305U, 0xf50d28d3cb819b33U, 0xfe09f6ef00e6da39U, 0xaf4123cc5e92d85U,
  0x4c816d213e65c501U, 0xad1e0d83d7fc3a18U, 0x35fcf5378e162b3fU, 0x44c3d35be3d621f9U,
  0x1d01f021090609bcU, 0xd511f163be9fce4U, 0x112b02b8e73a03fcU, 0x2d491914dc11ec7fU,
  0x150d171711fd2fU, 0x46e91eb4dd3af707U, 0x2af8042fdcef2ec6U, 0xe80701a6fa001d06U,
  0x3ff902dceadad9d8U, 0x7f028dfdc0d2f3dcU, 0x14330721cf0d0c18U, 0x42ebef1cfcce8146U,
  0x9072a140e4cfd1dU, 0x3709262d37232e29U, 0x21cd9c6d90fc023U, 0xeb6bf91cd8dce3c6U,
  0x4ad908d6dce90e2fU, 0x67f08cf0414e31fU, 0x2d14243511c62418U, 0xf32841ffcdf9eebbU,
  0xfdf0ed18d5b0cbd4U, 0x7bb99030c25b0d3U, 0x26f51c6ffefa29faU, 0xfe0c2107f395960eU,
  0x3f813701053045ecU, 0x1dce0781d106db22U, 0xe1ee9dec42f0fff1U, 0x450de5463ee2002bU,
  0x5957d33ccc12f1eeU, 0x211fc1eb0802cdbeU, 0x87fc15f5b231290cU, 0xa4396df32736ece0U,
  0xdb0e5917f76c29d9U, 0xc38c77f4924ac55U, 0x47b303df1b24e108U, 0xf70f0ef602100ef7U,
  0x15ec13e0ff810d2aU, 0xc310eb5eede13f0U, 0xda03180e98e9c7faU, 0x2c19142a18f2f23cU,
  0x3c17e10d16d1eee3U, 0xd4c82f035cd91bd0U, 0xc6ec28050e0a7ff7U, 0xfd1e0628011cdef4U,
  0x56d5e7bed7f1f20bU, 0xf803e9de0fb39511U, 0xde0283e0fefcd0c8U, 0x3e24654717cec327U,
  0x16cd4b137fe11bddU, 0xece527f5e316fbf9U, 0x2609d330d1c8b9c8U, 0xf8f2fde5d0e42616U,
  0xd40d03f1fcd4d017U, 0xe9e121f3c4edf604U, 0x7ff8d8f7f6d21507U, 0xd607ff2d0f0916fcU,
  0x27096af3fd15221eU, 0x1fbe0b0b3130a11U, 0x7cf39f981fd8500U, 0xa4e100121ec944faU,
  0xdb042c00dd25bad5U, 0xd197ca65a524ef25U, 0x1604f481ee27000eU, 0x1802fe0bb3cc42feU,
  0x2edff501f9ddc696U, 0x11bab4cb222fff2aU, 0x33e149eb57f22c7bU, 0x3686e322edcd071dU,
  0xe3421ee6b3db7fa5U, 0xd845e6214bcaff04U, 0xecbad6fae8cd30cbU, 0xf40b81f72d28d218U,
  0xe30712ebf4371ef9U, 0xdcfc113631adcfd7U, 0xea36c21bfb05fd32U, 0xea04271fbfd5b7e0U,
  0xf62b0f1106ce0039U, 0xdffae5c2dee00fdaU, 0x5de52ca81e5c208U, 0x1642d7edc6e100e5U,
  0xe301e22309ec0b43U, 0xbed8e61469038101U, 0xf8ddd949262acdcaU, 0x293a0912173f193bU,
  0x1ed815f702ce4902U, 0xbf03fc813bf10138U, 0xa9dcf0a4ecf332f1U, 0x30f4f54dfafc09fdU,
  0xf2350636104825d9U, 0x1a9b30b0e36ddb8U, 0xb3efb791fc7f5d0fU, 0x6e5691cc79912eeU,
  0x4e9d278910bf31ceU, 0xcb4b5989a8f0d922U, 0xc90b33f7bf054638U, 0xafd4c20e56e02e22U,
  0x1c0fecafafa10d0dU, 0xd11f2ac0b2e7b823U, 0xd329f017e0d382dfU, 0xd7f8c7f57fa7f86eU,
  0xf3f4e9340d05a6f0U, 0xff05ca26a9af1645U, 0xe4ecc4d1b5d5bb10U, 0x306efd2c2c8811aU,
  0x40bf312e6dd02f9U, 0x3cce2a3fd695cb64U, 0x13812314f809e86bU, 0xf8d628f549afa4c9U,
  0x3fe2bdf130653a3U, 0x1f35cd0d433bfaf8U, 0xf1de13c88112f1U, 0x5de6f93304110becU,
  0x20e80e1a5906e609U, 0xd3f71a391a0f514cU, 0xcb11012ec81c69e8U, 0x1c7f20b5be6ae87eU,
  0xf3bbc0d6213f0bd3U, 0xc107f026fe13e602U, 0x84be1832522fecbeU, 0xaf720a020811063fU,
  0x471903f50dfe1cd9U, 0x381cfd9f6d2903eU, 0x3d3bfa08cde90419U, 0xe2f73edd06912ccdU,
  0xb461eb3df912340dU, 0x302111f633e64d50U, 0x48e323199789d8dfU, 0x1503d60013fadf34U,
  0xe417c4bcf2f728b6U, 0x8a264330f381bbe0U, 0xeb0817c338f02d1fU, 0xfe1b3cdbbf36eefbU,
  0x81f9ee3008b8c432U, 0xe9f8e6fc24f5fed6U, 0x92093ec11c28e0c3U, 0x160424d1e1fb6019U,
  0x6683fb48f0279235U, 0x37e2cbe826d84637U, 0x6010d1706fd2287U, 0x45313e81dce0d4U,
  0xfd2abc10a2fff7bdU, 0x4cb2ce052be4db19U, 0xdbf739e00e441842U, 0xd64f417f47c81df5U,
  0xad04fc49aa640a27U, 0x300b0dead517e1cbU, 0x3ce2cd29980ff026U, 0xbef0d7ea4618e3f5U,
  0xd3deef2e483414b2U, 0x813cda0426dff2c9U, 0xbf3619f5ff3cbeb5U, 0xf763153cd7602628U,
  0xdafa38e038f8f44fU, 0x7f2cf8c8e83addf4U, 0x72d33437c7df1ffdU, 0xd12407fdd2ffbe06U,
  0xcdfb271ff41a252dU, 0x2752eae0f53fb8f1U, 0x6b9726019dc25929U, 0x3ee4dfca0df28781U,
  0x136d2e1ccf1eaf5U, 0xf3fdd4f9cdf63246U, 0xd301bfc3a35e9c2U, 0x1beeff7f58f8e907U,
  0xcee3e121cd2d05ffU, 0xcc35f403e70ac4fbU, 0xf80ccaf5e1efed1fU, 0x1322e581c2cc12e5U,
  0xe9190e01e2e4eb14U, 0x3a14a727f809180fU, 0x39413cf32f23aec6U, 0x67fc171be0285631U,
  0x1afed58e8106fae5U, 0x26f73aecfdea92e4U, 0xce5b6214e9fa5de4U, 0x3e013eb0881f308U,
  0x54155bb801f8e7U, 0xe53dee0719d10f24U, 0xe4d31e2bf0bb3928U, 0x31f911050af17113U,
  0x24a1104500cac7fU, 0xdae0b9dbdd88e22bU, 0xef5314a49cf7374bU, 0xc331dcd08efcc9dcU,
  0x2df91cc3fd095f02U, 0x1edf1fd12106e6b6U, 0xdd16ddd6531d111dU, 0x16dd2e14ebf7410bU,
  0xbe7fe51bf142e5eeU, 0x1eb6b8c2c268f4e7U, 0xf4ce3f51af510bfU, 0xde34a20ed6de0e14U,
  0xfdfcd490beecc30aU, 0xf05f1c8da8107fbU, 0x3e60941902d6fd28U, 0xdd85e026ad404dc7U,
  0x379bdb3a2dea08c7U, 0x181075b610af129U, 0xdefad7b599ed2c0fU, 0xcee92c019563acd8U,
  0xc6e293eb27fbf99cU, 0x60ea44b9ceeb2e4aU, 0xcb46cb819a2028fcU, 0x48c930d483fbcd54U,
  0xfff5c8ed3ef602f7U, 0xfb0ae0d10ccf3281U, 0xdbf0130bedefd129U, 0x1e3206b3d5a642f3U,
  0x2eb81af6c9e393d2U, 0xd85fc7319dd23e4aU, 0xd615c9109fe1afe5U, 0x19b1d4732a61b915U,
  0x28b3eefb29f29420U, 0x2df8f30db9a2f9ebU, 0x1fcfe2d041e27f0aU, 0xef6e24210c3554e3U,
  0xfad320c1b8f92e81U, 0xbfaeeca3121fd61dU, 0xb9bacfdf81f58bf6U, 0x350aacc1f815cf5aU,
  0x18dbf6e9cdde1218U, 0x310c010e27133f43U, 0xe21424b15d591227U, 0x4f072ee4aa49257fU,
  0xf8d5b65fe3d5121dU, 0xe7dfb393d629e3ecU, 0xa9e528bac8f245ecU, 0xb0fc2d3b80514dcU,
  0x5201240776c52efeU, 0xfc537f06b19ba2cbU, 0x2635f0c9c117e7faU, 0xcceac1f3d58389d1U,
  0xf2c8da7f2836aa19U, 0xc9f1cff64eaa5bd2U, 0xaae95fafb536e00eU, 0x5eb29f1f8fea639U,
  0xc445810dc2d11d20U, 0xc71f1cd7ab0a01e6U, 0xd4ec30c4cfb59f25U, 0x76f1d637230aeceeU,
  0xe8c34fdab2df212bU, 0xae55210fe028e218U, 0x41cd98e8e847ed0dU, 0x9ecd9003c7f98ffU,
  0xad3be44c7dfef0e1U, 0xd62d00db1deeccd7U, 0xdcdbcbd368fb520U, 0x83e46c2c4102d06U,
  0xd61f141ea0811520U, 0xe6550a4cf41d2829U, 0x1918d702ba51d2c8U, 0x4c1a8328ce1605f8U,
  0x75edbd01005db1aU, 0xe1bbf1e1a781d6ebU, 0xeb3fefdefdd810f9U, 0xcfa9edf116e8ffc0U,
  0x15b43cf43d153402U, 0xffe9f8e824f17ae8U, 0x3e7f44c5fc1aa0c6U, 0x56eef71ee8bc2a34U,
  0xddf1ff7ffd4a40bdU, 0x5be0dfa2893e13dU, 0x2646fcbee004e717U, 0xfbf903eaead1cc15U,
  0xbc36adfb01c4445cU, 0x31e930efae37baf9U, 0xe826e2f2d724bba7U, 0xfae5cb0bb919fd21U,
  0x3b3137f22e5d611U, 0xf6ef06060ed19dcfU, 0xdb2a4f421c35db82U, 0x1f5e6bca5e516f5U,
  0x3b014ceceb7cd12bU, 0xe63204d7dab1d616U, 0xb3257f2521041495U, 0xd8162b32d5e51f18U,
  0x12f10a221981fa2aU, 0x19caf8ea0c09ff0dU, 0x5808fb1f0115eb17U, 0xd01a2c2edbfe140dU,
  0x266b00002883U, 0x1a9c00001e0aU, 0xe28ffffe86fU, 0x114a000025acU,
  0x1262ffffec87U, 0x786ffffe827U, 0x7000000162eU, 0x316ffffd8f1U,
  0x14b7000001b9U, 0x1751000013f8U, 0xfffffc6400002cfdU, 0x24f700001597U,
  0xf10ffffe9dbU, 0x3bda000009e6U, 0x23600003418U, 0xfffffe28ffffebddU,
  0x1ede00002be5U, 0xfffffbe20000105bU, 0x1112fffffb85U, 0x1666fffff23aU,
  0x25cbfffff527U, 0xfffff66f000014d6U, 0x1418000016c9U, 0x210b000033b8U,
  0xd1a00001b35U, 0x3a10000019cbU, 0x1164fffff18fU, 0x22ad00002529U,
  0x1358fffff387U, 0xffffeeec000028f2U, 0x1eb6000015eeU, 0xfffffe8200002334U,
  0xd00908f65ff30d22U, 0xd3140d1b89cff7a6U, 0x3f10f51748da4f82U, 0xb7caf6adebee8108U,
  0x7f4d8153ea970c22U, 0xc03bf92bf9dbff3cU, 0x4bf7e3e10763b624U, 0x44bc28d8da64ad14U,
  0xd244be38497febe8U, 0xc7f34811ff39dbaU, 0x18c3a882a105fecbU, 0xf7fad4a530fa06e3U,
  0xfe3de7f7bfa8104U, 0x280a4656317f8132U, 0x7dea205ecd09d84aU, 0xf8b4881c9438141U,
  0xe4f529f77f4d163fU, 0x181313e829f1ceb1U, 0xe6fbfc3341107f34U, 0xb9c85597f7a63c58U,
  0xd603bf31fc36eb13U, 0x30e5f781d3f8937fU, 0x62b32313e6c83ab3U, 0x1bf77fdf7f2fbfcfU,
  0x81dbe08107c9350dU, 0xe0e4b8429a3edca6U, 0x32dda4e373a42e10U, 0x7cd581f11439ca1dU,
  0x39f5b2f2b9ddc817U, 0xa966dfe467e0130fU, 0xf23abad304cbb616U, 0x81adc21ea26c2ae9U,
  0xce42eaeee5280546U, 0xea52d9ee4a12bb89U, 0xc1cf12ad81caf9c0U, 0x772df17f56330e0aU,
  0xe7ff420265a0703U, 0xb9ce10f92fc456f5U, 0xe2ec5c4cd7d8cd62U, 0xffa724a9107d2c25U,
  0x1e5efba72b23e81fU, 0xf8f03d103f45cfa4U, 0xfbf30b71336b7c2bU, 0x7f7f3af214d42702U,
  0x154be71db67fa8e4U, 0x7fbad0c5dcdb310cU, 0xf9817fc0fe1d7f9fU, 0x3fec001524124cc3U,
  0xec16068a11e610e9U, 0x7fc9267817f53e1U, 0x526f278120a3457fU, 0xd00fa91bfd12fdd3U,
  0xc915d0b381ceae0bU, 0xfc2f27157f23e20fU, 0xc02f3c812581ea0eU, 0xd109b453de7f337fU,
  0xde7f7f38eebbc97fU, 0x7f75f07107507f7fU, 0x42427fab840a50c2U, 0xff862941810248d3U,
  0x6502efba3455eadU, 0xf381815a7cee2e00U, 0x810350097fc3d131U, 0xed7fda422b3c3a5fU,
  0xa41ce9c6b7e681efU, 0xe55f7f3457130628U, 0x7f7f183faa7f2b4dU, 0x3e565009d7814a81U,
  0xa1ff637c37c9181U, 0x41e8510c693e7c44U, 0xc9be44b622a43581U, 0x1c22f439402c1efbU,
  0x89effffeae5U, 0xffffed4cfffffc52U, 0xffffff490000292fU, 0x313bffffe710U,
  0x7a8000019d3U, 0x6c8fffffb09U, 0xfffffebafffff7a3U, 0xfffffbd7fffff62aU,
  0xffffcf43fffffe93U, 0x1010fffffe57U, 0x1cb00001189U, 0xffffe78afffff8c5U,
  0xffffffa7000007eaU, 0x35100000796U, 0x2420000061bU, 0xffffeb07fffffed3U,
  0x1190000015b5U, 0x1346ffffe7a6U, 0x1643fffff5f7U, 0xfffff9b9ffffe62cU,
  0x56fffff5d7U, 0xfffff64fffffff38U, 0x23dffffffcaU, 0xfffffa4200001105U,
  0x2910000013bU, 0xfffffa35000013caU, 0xffffeb160000089fU, 0xfffffed500001a67U,
  0x18bfffffbfeU, 0xfffffbe6ffffdc03U, 0xfffffd990000085bU, 0xffffff050000170dU,
  0xd081521c2d442e07U, 0xc8e8a50cd6c9ec2eU, 0xac26260322f42054U, 0xe5badc1734fdfe1aU,
  0xf10dd913e9ff9ce8U, 0xf4d00df39e13ee04U, 0xdef826063032db23U, 0xf9ff3e250329e9e2U,
  0xe926de23190823e4U, 0xfde2e802d7c11503U, 0x34bb2af4fd8ef3acU, 0xd357ff04d7f416c9U,
  0xf7e4de33f0022229U, 0x673df915d8add24bU, 0x493df1f013ecae22U, 0x46dc8112042fa354U,
  0xfdd434c518442440U, 0xfbd6052ccad7071fU, 0xfb2ec303c938181bU, 0x150e8126ee402854U,
  0x5f0b43ff8cff5faU, 0x1ed943450ef004e2U, 0xf24cd9e60f13d900U, 0xe23aec4a33d41630U,
  0x5a11351d02c5dd44U, 0x4bd83e31f6b3ea12U, 0xf50ab6f10cdc66f3U, 0xa1364b1ef7fdc58dU,
  0xd0053a5204d3e34U, 0xdbcf4ef81fe0f0c0U, 0xc4cc210f1bf7107fU, 0xba02c4c5fd0815e4U,
  0x16e30cfafff81c07U, 0xf05c311a2cd130fU, 0x386cbec29593af23U, 0xdddcb50d4510abd4U,
  0x38c311142b8135cdU, 0xc1c1354215d512cbU, 0x1ce9a6f1fdebe0acU, 0x8cc1917b92c10c7U,
  0x9dbf3e10faf355d3U, 0xd313da27de051eeeU, 0xf2181be8fc20f2fcU, 0x1af3f4197f070e27U,
  0xf1fff9eb2909fa13U, 0xece3f0e826feff1bU, 0xefbffeaea22bde5U, 0x36bfbed8f0defb21U,
  0x352d3b230ad7b618U, 0xcbc42c5aff70051fU, 0xf6e6030b89c63339U, 0x3c85ffe61e2f1a3U,
  0xdf81730dc6d71eeaU, 0xb42f4d8d212e2eeU, 0xeee2df08ecd93addU, 0xb008cad3cbb31ba9U,
  0x6639eb36c5060b35U, 0xedb335fc31a02234U, 0xb2cae39fd5001a6U, 0xfd12308103565e25U,
  0x29e939e06d762669U, 0x1846c7ea03add79bU, 0xb12ac8f1c4df0a1eU, 0xec119f061cd98c17U,
  0x39bb0b2b031acaedU, 0xde80e17ded31a22U, 0x810a20c9e2f5bffeU, 0xd91c0933de1d1bf8U,
  0x6ecd81044fff734U, 0xded6fb06accf1b31U, 0xd315132f4516d30dU, 0xef03e23f082b3b40U,
  0xe0fd645f2211015U, 0xac0101fd20d05f6U, 0x1fe61c343c09810dU, 0xe005fdedbeebf802U,
  0x8420aeef19e2e12U, 0xa2138f3061ff4ecU, 0x4040deb3d8f740f2U, 0x16f70e3943f0fdd7U,
  0x291db42b57081133U, 0xf3cdbc1d9ff0fc06U, 0x1fac33f186181d5U, 0xb12be920c248c9d9U,
  0xfe96e21c18c6d2c1U, 0xe1e02efffaf70131U, 0x746cd00300f520c2U, 0xeb52f8231d34c817U,
  0xe0fe810f07ec0325U, 0x321c7706d503d42dU, 0x56fc08e7c710de1bU, 0x5c7fb09e149f127U,
  0x2180bed17aa568dU, 0xe8414418f22704c6U, 0x2341d4eb35d8c803U, 0xca7bf10102d402e0U,
  0xda3ea8fc112fd67cU, 0x66135712f403cdaeU, 0xf3f60f20efd69d28U, 0xec1bbfcee60c19dbU,
  0x10738db13f6d0eeU, 0xf2031081ec000bb4U, 0x180b35ee1a1229d1U, 0xf345e13ff1c7e3f0U,
  0xe4f99dd51cf1e477U, 0x42e9385f26a60815U, 0x710ff00cbf7020cU, 0x8cefd01c810f1fd4U,
  0xeddddbc143e3fc0eU, 0xdac712f50505e1e2U, 0x1f15eb2b41060417U, 0xf7dde12cf7acdcf7U,
  0x3c75abf3cef20d6U, 0xf1aaa31e1203eb23U, 0xd0eacd247cc11032U, 0x19f40ec954dd3935U,
  0x3e9ef8ed59d1ff6cU, 0x55e41724f7e21981U, 0xf3ab3b241b63c81aU, 0x48f96f307dda750U,
  0x1ed9160935040ddeU, 0xd7eed50bf80f32c4U, 0xcd1aebdc2fe12d13U, 0x14f2127f00dec019U,
  0x2f2632e7f706db23U, 0x101be5f3fc7d3311U, 0xe7f4910b3bdce107U, 0xf7d9d92a0b0ae4dfU,
  0xfabf322f6ecfe613U, 0xf617eac7caece107U, 0x109d2c09b2ee0914U, 0x27c0e90b47fe91ffU,
  0xfacaf62e290fe52dU, 0xc003b6ebedf315a4U, 0x14421204e3eccbe3U, 0xf4f11181e28bf1f0U,
  0x3fa130dfa62f92fU, 0xccbf121dc7291fd3U, 0x7ff48e8f0f31cdcU, 0xce1ee90a3cb50103U,
  0x51d2003e71dbae9U, 0x580c00151ff07ff5U, 0x62f21eedc43fe816U, 0x338f9b0234351344U,
  0xfe92ce010ffe094aU, 0xe19111dff9ee2609U, 0x40001829010c221aU, 0x2029ec2ef2e72662U,
  0x10f81348f7f33381U, 0x5e492e392447078bU, 0xed4e022fbb2ecbeU, 0x1de8eeeb090612e3U,
  0xd91605ef071ede09U, 0x199b1b072de6061eU, 0xd2dbe4de02d49d17U, 0x8104f3f7014aea06U,
  0x73016e9f8f40829U, 0x2efcf01fea1dfce8U, 0x10330ded10dd12adU, 0xf082700fe0fb6f1U,
  0xe1362b1e1c0b2511U, 0xe3b5d910fd4bc3c6U, 0x2ac9b8f66645ab3fU, 0xdce335c412e9f3eaU,
  0x381b0ff20fda07b4U, 0x508b64f131ceabeU, 0xf26d3dbf0cfd7f40U, 0x2e0ed9e3040a9afbU,
  0x7fbd6919cde928a7U, 0x2a1765763f3e3715U, 0xb31916cbae6d09U, 0x65ce4d1c421f2d41U,
  0xf7153fc8eb265331U, 0xb912224fb72306ffU, 0xe63e6f0630482a05U, 0xd4fadf0c5be7ecd6U,
  0x81f1d528df1ef6ebU, 0xe319fa3dc4b07542U, 0x25f9d7142a241cd6U, 0xb7f2e42bf21dea30U,
  0x17fb1ae3e71d0dU, 0xf1bcc0ec74fe4c1dU, 0xb42a2df0d5d2f3e7U, 0xf54bb6d9e824ecdbU,
  0xeb8116efe4011e0fU, 0x97e2171ed8c7e01bU, 0x1803f7bd0b9636eaU, 0xea0c30f804020e05U,
  0xe3c7673bb1f22df2U, 0xd6472bcefffac9efU, 0x3acaf92bd214b029U, 0xfdb4f241d00e3aebU,
  0x4132db18a7a4210aU, 0x5f51fbc23d92ceaU, 0xf0bd81e23264fef2U, 0xe349d3e4d80798fbU,
  0xc996f3d2ed3c02f9U, 0xdcd4e5d510a93887U, 0x31162441dcd43e42U, 0x2bf5e9ddd2c8163dU,
  0xc6d890e07fdea407U, 0x1d91b1d3b01602cU, 0x77f9de32e129e5faU, 0xc709f45504c9bf00U,
  0x244a33d72beb14d4U, 0x1f2549f9c0d340e4U, 0xdb50dff94caf07a3U, 0xf422ee5efca21df6U,
  0xe4f6fde8223b3eafU, 0xce971ef5f8f1f102U, 0x260627fc113413f5U, 0xf8332d2606f80202U,
  0x27d320d106403b3bU, 0x36ee1af7f8012081U, 0x302acbe03bf4d6d0U, 0x521bef20ed927b7U,
  0xfef93cfc0ff642e6U, 0xc5ebc7bdbeb78e45U, 0xde4548d4f8ca01deU, 0x4ead0bd835c417eeU,
  0xf12bf6813eeae10dU, 0xe1e0d82bd305c6daU, 0xc373c3f7a8effeeeU, 0xf3f3da95c9df0b05U,
  0xe2bc24effa35cf5fU, 0xf781062d90d1beb5U, 0xed0fcf2bf828e1d8U, 0xd2f9bf100bd24b1eU,
  0xfeaa16567e01021cU, 0x7f36422ff02e2c27U, 0x4a1bddd2a6eff228U, 0x1462034c12fcde03U,
  0xc605d7172635e634U, 0x21fef2e6e4e6102fU, 0xd6e4d532f2f4e7cdU, 0x144c0ff4101abf23U,
  0x15ea1816debd22f8U, 0x182408e43a272be1U, 0x305c411e3ef773faU, 0x32d543fe1d7f05d4U,
  0xd3d1003666fe127aU, 0xf8d37fc6d9c5830cU, 0x18c1f0ec0a250deeU, 0xa4d722729b41deb7U,
  0x5ab05ddfa373331U, 0xd9ddcb42dde5eddaU, 0xf01a3bb605b6cc6eU, 0xd374c1291be348abU,
  0x28efed466d7f3ae9U, 0x2eb7add60996113fU, 0xc347e4a8febd2d42U, 0x94dfcc4ec7c9cb18U,
  0xeb0edb2e1cd51ec9U, 0x10ca161ae4eb3bb6U, 0xead7da4fee01dfdaU, 0xeaebd5c109380a4dU,
  0xbc20c967091e0dd7U, 0xa712031104d7d5a3U, 0x24faef088812fed7U, 0x14dede17f0f907ccU,
  0x34cd61e7353d60c7U, 0x33cf10bee4211d81U, 0xadf2e92edc18beacU, 0x96a04fec6232052U,
  0xf300e5ea172232e3U, 0x31034fffeaee2907U, 0x38caeb14bb052ab5U, 0x30fb0851ec18aef4U,
  0xef33f9f0b1eed981U, 0x1f317d7d1283cdbU, 0xf5f801e0f7daccdbU, 0x2f27cbfee20a1abeU,
  0xebf9dc081ed1e6d0U, 0xdd2710e8202ff3daU, 0x712ddd1e445f4eeU, 0xcfe7e802ebc2d610U,
  0xf2e04ae204de03d5U, 0xcdd9f5ddbaf57fe1U, 0x9ccb34e70e1933U, 0xc9f940299ff05bf7U,
  0xbffc6d1aa536f711U, 0xf9f012e9e71833d6U, 0x17fc0a3b0a0f16f1U, 0xe463b9d8172c5ce5U,
  0x3605fd09417ff342U, 0x3cee14de43db0124U, 0xc6c903f70dd8d0f8U, 0x3bef082a02e3f337U,
  0xbfc68118cdcee333U, 0x6b1a05feb20b390aU, 0xbf07d700fbe7f1e9U, 0xcce6eaff120ec736U,
  0xebc931adfee5b519U, 0xed26080af0cabcf9U, 0xbddadcc4cee9e8d7U, 0xe5eaea7e21224dfaU,
  0xbb0123443ee4e220U, 0xc781e4a21cb5e12dU, 0x1ffe0799dbf1f2a8U, 0xada4f8481cf7f110U,
  0x7f655e771a63d55U, 0xb8d457efe13e3e84U, 0xcd12b86565a9e2f0U, 0x860cdcd7d52dd114U,
  0x5ef3b2d28105dff0U, 0xfd05e7e61cbef7dfU, 0xd9d23cd9f21bd9ccU, 0xcdf4db42f7ce4028U,
  0x1d3b410cfcbf043U, 0xebfe08e9a7f91110U, 0xa761e3e92ef0523U, 0xa03e4d31c1fd033U,
  0x2f03022325222810U, 0x8f7812bf00cbc1aU, 0x21e02bda04d9d9f7U, 0xd30c0f31541fa824U,
  0xd205da63d9e51b86U, 0xb2ed3b062e46e2e8U, 0x10c5011db3a0ac5U, 0xad3389f5f5e61818U,
  0x503068e225202caU, 0xd9e103386ded2c9fU, 0xd203e6e42e6412b5U, 0xce42303ce90c9129U,
  0x720fc9ce1cd162bfU, 0xf7a301bcddee7f16U, 0xbd0a6e8e30eaef7bU, 0xe0c25cd9bebe88fU,
  0x19ddf7e11ad74427U, 0xaece0ecc804e2e6U, 0x23e5111e01fb39faU, 0x2fe142dce21e5a00U,
  0xefb7df101e19d538U, 0x7f1f00fe339c1210U, 0x17e5eedd041f990dU, 0xe40416c134000f92U,
  0xc418ec4725ebe203U, 0xe39dfddbd81cdee1U, 0x12fae0f60ffcbb2aU, 0x22f0391b01f381ffU,
  0xf40e4f37d1ce01f0U, 0x113137ff194af3d3U, 0x201aeef714ee34f8U, 0x6f414251d43ec0eU,
  0x4c080dccea6dfb01U, 0xf0eb39e4f9e1042eU, 0x2322ddd9fa04065eU, 0x2be5f93d0c163510U,
  0x51ceffced094a55U, 0x35031248130a39f0U, 0x274ad822e2f5142bU, 0x91101ee2ba8dc7fU,
  0xcac0740d230b10f2U, 0xa624fc9a63d9db03U, 0xc40af754e82729ddU, 0x127047038b8f552U,
  0x41c6ef1e19d3f57fU, 0x233ced1ef7e4c269U, 0x4b09a622b05d4becU, 0x178518abfbdcdc26U,
  0x883ed6e53d260438U, 0xd6cf6bff2cf0beffU, 0x3c0c0232181f3bd2U, 0xee043df081fc4ad3U,
  0x2c08f60fe02493f6U, 0x26dad46dec2c09d6U, 0x3db11b835d73f34U, 0x47dbdc014315faa8U,
  0x2ee61f06179de534U, 0xd037143f2523202bU, 0x94812721fcf03e08U, 0x3419074b380af49eU,
  0xddd3ba4015ecf629U, 0xf649c9d2c3fcb0cbU, 0x19e72a0da5d80511U, 0xf4f65ff9f9d2a32fU,
  0xfedc81021e117947U, 0xed09156a372b25ffU, 0xbf2131e140a30daU, 0x19fabffdd50f0a0aU,
  0xfecafeb42ae901adU, 0xb9fde21b6403dac7U, 0x1d20dc7f527f90dU, 0xe53f3a1b96c91596U,
  0x230f3a0ae907cc0bU, 0xfe811ff602f7e308U, 0xb30009e3f9f130efU, 0xedeb60fa1d0e08f7U,
  0xdb1a0d29e7d4200cU, 0xfa0d07f4ebe5d3a1U, 0x3869f71717fd0913U, 0x9d4bef123dfe3f8U,
  0x148ceb29f73049caU, 0xd41624e29c34ee45U, 0x29a0d80631d61004U, 0xba14d725f8fd070cU,
  0x36ee7328e6ad55ceU, 0x3c2d2343312ad409U, 0x48e3818cd90b0caaU, 0x1617ec0e0917f8f1U,
  0x56052f0032be1ffbU, 0xeee0ddacee5e91cU, 0xe10dfb340f0052d7U, 0xf5020930dcedeb57U,
  0x3bdee6e2032b3514U, 0xa071af92c10b881U, 0x60419e9d65f0317U, 0xdf35072e3248f8ecU,
  0x1291f58b1e8cc517U, 0xded6c40813d71b05U, 0x7fd4ee1197e20cf7U, 0xd061ee1efb0006U,
  0x9d4fefd2ef15c2e9U, 0x251c1910861be500U, 0xf50224f24a3dbeecU, 0x7c5ff19a8d5ec4eU,
  0xe81cd24bdb12fd61U, 0xe01e33d1f3960539U, 0xe326fbf0f7df04ecU, 0xbf2d401da6dfbffbU,
  0xc6bfff4018dc2cfeU, 0x32123d81d80ec000U, 0x501fb7ff2516d8cfU, 0xeae9031ad4e7f503U,
  0xec2f2a39c7c21922U, 0xe2edfed4010ca8adU, 0xb8daeed91fdb13c7U, 0xbc9a0ebd77b3ec15U,
  0x2bf2287ff7300d0fU, 0xee4cd9ef0dd1dc7fU, 0xd8fd060a31ef81dbU, 0xe3d14bd1dc14fb1dU,
  0xbd163fe7b8ffd8c6U, 0x6b0340af72c1402U, 0xed0e17d646cf49c7U, 0xfdd0f4f9ffc81fb2U,
  0xd0c421812a3300feU, 0x2501f957e3f4a1d3U, 0xbee31c1014f9e5d1U, 0x3cb8c6f015b26eeeU,
  0xe1e84b551b4fc4c3U, 0x20c0c1e30fec881U, 0x70cd2afadaf51c22U, 0xe723021e1a12ec6aU,
  0x5809163235d26a83U, 0xa43f84add3c5c01U, 0x6612d2d401ce01c3U, 0x120aae9ecf1bde4dU,
  0xdf860f22d22bda45U, 0xcf1df80600ea43caU, 0xdff41af809b0ec25U, 0x1bd9bf22d62ed111U,
  0xeff99a58e281002dU, 0xe0d8f9c148e24d58U, 0xa031f0091fe3baf4U, 0xbfbc250df43edff4U,
  0xb62405f80216aed4U, 0xcf9852eb5afdbe00U, 0xf74002b1c514e918U, 0xa213f72be03618ffU,
  0xff037e68d9158f7U, 0x31005f784419f281U, 0x361c91c20d1deb6U, 0x7fa4c2d00160d25U,
  0xdce4be0815f80b24U, 0xe5bacea4040421b0U, 0xedfa1d0ddf13a6dcU, 0xea08ec3eeeedbf4aU,
  0xf31532cd1ddd36e1U, 0xdde623e0ebf32ee1U, 0x337fab2febcdf32bU, 0x240df9cf34d40811U,
  0x1ab9d4b3b2fcf3f8U, 0xe3f530ae7f1d5854U, 0x3a96ee4557dc13dfU, 0xf8462444ccfba909U,
  0x54af30ed101b47f0U, 0x61c136e423d125e1U, 0xf7bc00d60546a827U, 0x1d414f434ea522f9U,
  0x3c21fdec2523de20U, 0xdff2ed0306f8fd15U, 0xfb08f0eeecfd1f1bU, 0x10cf31fe9d6e315U,
  0xe1d8e62014d62bdbU, 0xff81ff03000210fbU, 0xf020e81bec163906U, 0xd60b1405e6c8f40cU,
  0x5211fd82f8301906U, 0xfce3dfdb7ff5e1d9U, 0xef20a0f3ce5b1cecU, 0xd2bce41a0a029ed9U,
  0xebecddc71eaf0fbaU, 0x15cd48f7e1eb7ed0U, 0xbc10f51dd0073c1fU, 0x8ece0d4f4ce1eebU,
  0x4af22aeb4ce20408U, 0x26080eafff3dcd28U, 0xff1c4b1cdd1153eaU, 0xe2e0602e5dffd1fU,
  0x4f888bee7e7100dU, 0x9dc45d4f67f0203U, 0xea4d710fbeae81cU, 0xc207a168fec01450U,
  0xf7bae4e0e60846beU, 0x121b1d01ad16e00fU, 0x27e304c822ede8f2U, 0x976cc72aeff5d50fU,
  0xfe661c1bfb020b81U, 0xb50ef121c0d4034U, 0xe20d2ee326b02e0dU, 0x272a172606cf2ea5U,
  0xfffff54600000b2eU, 0xfffffa7efffff227U, 0x8bf00002b52U, 0x30f000014bcU,
  0xfffff124fffffa6bU, 0x340fffff9f5U, 0x2777000009f3U, 0xfffff19f00000e48U,
  0xfffff80000002525U, 0x147300000418U, 0xffffacc8fffff8aeU, 0xe5c00000ea2U,
  0x8160000296bU, 0x1d3000000e9eU, 0xffffe9cafffff2bfU, 0x1a3300001b24U,
  0x1ff100000e48U, 0xffffe97b0000170bU, 0x16110000229aU, 0x5d700001c06U,
  0xfffff21900001797U, 0xffffd62d000008a9U, 0xaedfffff0d4U, 0xbfb00000ab4U,
  0xfffff99200000aa4U, 0x2745ffffe1d7U, 0x11db00001080U, 0xffffe8d60000270bU,
  0x126a00001546U, 0xffffea83000014abU, 0x321500000a9aU, 0x42400000625U,
  0xcff0cff7bf22376U, 0xe9f50562039f5781U, 0xdcce52a8127f4c9U, 0x4d656da26282ad29U,
  0xdcd325449ce4d2a3U, 0x500d0c5f3413dd45U, 0x28016a1df00e34cfU, 0x17d9180cc919477fU,
  0xf7ecec597f07e67fU, 0x66f31c5409043e39U, 0x5dfd0a013236bbf9U, 0x2c4e3c0f3a93e67fU,
  0xa2df367fd97fb8a8U, 0x3bcf06877f17977fU, 0xdb128131ec2a817fU, 0xf00641220fb0244eU,
  0x4f4f37f40f91365U, 0xadddebe23f0b731cU, 0xfdf5c5c1cbdc81d2U, 0x7f65bd41ff810920U,
  0xc54d1fdd044f2cadU, 0xdffdec5840feb42cU, 0x7f3d173efa7ffc08U, 0x490c1fffd881237bU,
  0x210d14f0c71d9d4bU, 0xa30be2e3daf9eabfU, 0xe2de063fea4306fdU, 0xec4c2ddf01f9cff3U,
  0xe1f465fda0c0df81U, 0x7f9829c90bf3c14eU, 0x11072ce6f53f28eaU, 0x46932b0c99b40a9aU,
  0x31f0d722b11d811aU, 0x377f0eaa1a2c651aU, 0xdafb8d7031fce981U, 0x80db20c71e51e13U,
  0xe6fe1c67ea1dc2ffU, 0xd51e018112347ff9U, 0xe011b23581ff961fU, 0x21ab072c818346f1U,
  0x2500e444f807b7ebU, 0x8170048134627ffaU, 0x8126ee20dc1fdad7U, 0x113ec2539e13d11bU,
  0x127f642b8107efdcU, 0xcf19e7c509cd0f25U, 0x2e49e2428a0a3d0fU, 0x34c7ef06bacfd990U,
  0x911cf0d1b6ec0c03U, 0xfde6efc8e1f1ebb2U, 0xd33dfc7f9c0005c1U, 0xdc810bdbdb2f47eeU,
  0x1a017fd0ed0b3121U, 0x5081fae0f48a1d20U, 0x23df200df22f02feU, 0xc0817fd3c222e803U,
  0x817f7fadf43a0238U, 0x7227f12812003b9U, 0x94a8154221508e5U, 0x8bf9306c64187f31U,
  0x7f1d0df16e2e7f37U, 0xea3b7fd299810404U, 0xfc81e781e606b43bU, 0x81d51c8113dcc81bU,
  0xa13c3113a37fca00U, 0xdee80892f47f1517U, 0x107f7e09e07fb1feU, 0xc164817f8129fd29U,
  0x274b530acbcb234dU, 0xcdf7dbfe29a606e1U, 0x12a0a926ca064d00U, 0xdbd4eee64bf08115U,
  0xf9cffffca53U, 0x2b1fffff4a3U, 0xfffff9c4fffff3b9U, 0x190afffff447U,
  0xffffdfd7000013c5U, 0xabefffff93dU, 0xfffff7bf00000defU, 0xf10ffffed18U,
  0x266400002848U, 0x1262ffffe912U, 0x15eeffffe442U, 0x6a3fffff3cfU,
  0xffffff23ffffe88bU, 0xfffff74100001472U, 0x984ffffef9fU, 0xffffffacffffdc8eU,
  0x5100001dbcU, 0x1f44fffff5f4U, 0xffffd520fffff503U, 0x84ffffe62bU,
  0x83affffe54eU, 0xfffff7e400002298U, 0xfffff72300001800U, 0xfffff186000013b6U,
  0x72dfffff10eU, 0x2d5afffff335U, 0x10aafffff909U, 0xfffff44d0000042eU,
  0x16e0000005cU, 0x165c000028e0U, 0xffffede000000b97U, 0xb0c000035d5U,
  0x3f3d6624262b22f8U, 0xe4ecf90708e8f620U, 0xfc226b0741bde133U, 0x1f150ce029128a1eU,
  0xf5e203bef3b5a9a4U, 0x81c2c4ad0418bf28U, 0x8cf23f2da0ac5feU, 0x14ff1a790026cb0aU,
  0xd2dabdd6ec4df6c4U, 0x7fbc36bb06340737U, 0xd441f967cb08c1f3U, 0xc1f0121624dde9d9U,
  0x94cf704a03cf3f9U, 0x21101a4bb29ffbf1U, 0x5cfe3036d513ee26U, 0xae1c2615d82be419U,
  0x1f2f03f3dc2723edU, 0x6becd27f8a7ede3U, 0x33e41cf535d31cacU, 0x2d183308263bd5b6U,
  0xfee1f751020b90f1U, 0xf91d4bd181e7b706U, 0xf10c1505dace27d8U, 0xadfe42ae7d043faU,
  0xac04dde5cde71adaU, 0xf3ca152405dfe99fU, 0xdd45fbfeddc1f596U, 0x60ba5a5326e831efU,
  0xf128a0e72ffbb132U, 0x132555f623fca902U, 0x17e1fa1322d8eb7fU, 0x320b322303225318U,
  0x1b3ded3002c97fdbU, 0xbdd632eff0efe7d7U, 0xb6fdc5d1fc0ee60fU, 0x2717ff13d3ed0beaU,
  0xd7e657173e1e052aU, 0xe5e84ecc1a4840e1U, 0x7c7290be5c2c108U, 0xf35280d1fb7e242U,
  0x50235d58f8d93542U, 0xff55450ff60a14f8U, 0xeed608e346db217fU, 0x3f3d2523f807cf15U,
  0xd5c90b10fa2de326U, 0xfef860eddf4b71a9U, 0x8324d1bf3486919U, 0x5481313011221c1U,
  0x7f1b40ff08dc06d4U, 0xc23e3db0de4ef33U, 0xed9b24e11a1308e5U, 0x18ff06f11f1705bdU,
  0x5f7e9132a16f01bU, 0xe16c52a15251a05U, 0x2031dff01dd18feU, 0x4f91040df092d05U,
  0x50fae11a0881e2f6U, 0x18b10e09f8d32209U, 0x41e6f3e57742e812U, 0x97b53dcf7262020dU,
  0xdf121abd0fcbf0f3U, 0xf9f32d333502ca35U, 0x9f15e11fb199ddf6U, 0x4db43e30f607e6adU,
  0xf209232a0afa0b20U, 0xfcbce43f12df1107U, 0xe1f0fafb0134bf1cU, 0xfdf8e8111227d3e8U,
  0x2712133106e4fc81U, 0x1d5f1f0bd1d7b9e0U, 0xc07f5f8b709dcdbU, 0x1c3e0b1616ca4111U,
  0xccbfde10e9e19708U, 0xee136d009e15c1f8U, 0x235c0cf807fdc03bU, 0xd9fc652ef8fe51dcU,
  0xc3de2b811fae1c13U, 0xa7cadbeb031cadceU, 0xe621ee8e02f8ab0aU, 0xaf2c219ef4c5f4e2U,
  0xf6dff2e8eefec309U, 0xfb151001dfe56604U, 0xf9ede9ff300de211U, 0xf30156231bf1fee4U,
  0x231b39df5812527U, 0xf8f6db371510aa1eU, 0x270c12f212f9b526U, 0x2a0ee1d508eba6U,
  0x244312bd1e83200U, 0xb4f2e9fa1ee4c4edU, 0xf61944f3f31e077fU, 0x61cedfc2612d6c0U,
  0x139ea738e529eb1eU, 0x23e91dc30a052925U, 0xcbfeebf4a5c408dcU, 0x12d7e1e801fa060cU,
  0xc2b208d12900f90eU, 0xfbaa0e1fea29c01aU, 0x9223e83e9870fd1dU, 0xecf5f17c07af27edU,
  0x1e1807030b042d04U, 0x321be80f2abcd6f6U, 0x46c7fddc81f7ddf4U, 0xb1606b8f6e6fae1U,
  0xd6ebc6e3ddd781b5U, 0xf2caeb2391b32714U, 0xf7f2f170dff3200eU, 0xd4fd01d5ccee4e0fU,
  0x1a0c10a92aeef205U, 0x905f21ecddbd109U, 0xe6c50bc0e10c3f26U, 0xc3081ca3ed19d7feU,
  0xc2457f01c698ec08U, 0xc01acbb682b1041U, 0xfe1228cf57cf1c52U, 0x1ccad71c193722c8U,
  0xe30d081f4c2404e7U, 0xa50cb8e5d8f3c4c5U, 0xed2bdadc1d921d13U, 0x3fe0c534302e6dbU,
  0xcb33232cdbfcefecU, 0x37a812fc3b114c4aU, 0xc2f4fe29f8c7af00U, 0x292aec2bb932d8edU,
  0xa4216c82a47d33dU, 0xf303f969ae01057fU, 0x5bfb00e800fd0f1eU, 0xf45743553e83fb2dU,
  0x8deb094c6081f0d9U, 0xc9b85edf0b23ff11U, 0x2996213a21f4a6fcU, 0x32ca12f617dbc71cU,
  0x1308542a1dd1fdfeU, 0xecda3c03e5df38deU, 0xf4d30bda3713fc29U, 0xc8060b26202309fdU,
  0xece3cf83ec01abcU, 0x1490b16bae22770U, 0xe1e714230c0dc13aU, 0xec290b22d02fecc0U,
  0x1ff9db16cf300fe2U, 0x3ef1e7dadd094215U, 0xcc9edd030fe6011aU, 0xc0c6fcfaff257ff9U,
  0xe0fe21b73085f7feU, 0x270bd430a0ddad52U, 0xf627c6e409e881bdU, 0xdfc702f6f130cec1U,
  0x10c6232516abc4dfU, 0x39191cc60cd34ce7U, 0x9ecef33eb0dd0409U, 0xf33511f3c6fa09U,
  0xfc45210604f8fa1aU, 0xdbfed5c23832db1fU, 0xf0eb2b3114fee8a8U, 0xb2edc1fe3b28080bU,
  0xe50d1702f3d9ea12U, 0x414223d40c3bf212U, 0xb7df1f5ed4e60bedU, 0x477f01330024ef0fU,
  0x1ffe1a2bca0b22a8U, 0x43b81e12f7e0123bU, 0x1431e6f81b1319d6U, 0xe1ef2ad5e7bc3e1dU,
  0x7c3128c9df2f18e3U, 0x1607fc7fef1cab15U, 0xc0e403b73a07f31bU, 0x8b424cdad6e7e609U,
  0x8d4ae21a0d41b3f9U, 0xb18512555aa5fb19U, 0x5dc08ce512a20afU, 0x10f242424145e72bU,
  0xb53ed86c813e78U, 0xd656220625f8b8e6U, 0x9cef16e0f931e459U, 0xba1694ae5eb1b32U,
  0x8243b9ebe8ea0881U, 0xc2071ff42bf6f7f0U, 0xdbe8d412b75cc4f1U, 0xc5e2590af21706e1U,
  0xf0b74d4dddeeeff0U, 0x7fd2d0e26fec9bcU, 0xe7d7371820220eabU, 0x2e1db5cbb818f705U,
  0x272b03fa2addf2ecU, 0x30e8ea06ddd2fa5fU, 0xf8d2e5ff00f3f8f1U, 0x34000123002e39bU,
  0xf9f8c1e4dc16e207U, 0x4e3b0d7f05360a09U, 0x23b8ea04ffb1272eU, 0xff096527031ab100U,
  0xc0be005f3ce4f504U, 0x224b06eef8ec332cU, 0xf5e61279e44ad8b2U, 0xd1b7cdf328028122U,
  0xe9dadf598619d6c0U, 0x41372b52ecce3d14U, 0x6a21f82dcf3ef840U, 0x340f2fd5f0d03c02U,
  0xe806fcf72a1a0867U, 0xcb1b32ea8122dea9U, 0xd1f6b41dd9ee050cU, 0x2e7220ecd36bee90U,
  0x22d2db39d2e0f014U, 0xeaeafc12f0f60b0fU, 0xe725e4f50de8f2dcU, 0xbf220fe1e350672U,
  0xc0e213c80d435d29U, 0xfcc0feeaebd63aefU, 0xe90503a83a12ffU, 0x23d53a1c248162b9U,
  0xfe262c190e113626U, 0x15baf733e4abeff7U, 0xecc616e5d30a1ddcU, 0xe2b43ff3c7a622ecU,
  0xe733e97f12dcb6deU, 0xde39c7b53efeb2b3U, 0xa4013ed51f0f29ffU, 0x48420c01ed381926U,
  0x1c186df8fd2deef5U, 0xa1cb2ad72d13a6deU, 0x22dbedf0d2ba08e8U, 0xe82fde29cdebd4faU,
  0x7f5763af18e9b4b4U, 0xbd699141ee4c9f8U, 0xda6315503248f9caU, 0xcc154d417e0ec0a6U,
  0x27d0160956f32915U, 0x3562a642e72eef18U, 0x26eb0af8b1ebdf08U, 0x3ad70a72a1e1d9fbU,
  0x81e400e0fe2dfb10U, 0x1e2af9ee473ffdU, 0xe015cf1ad74be7f6U, 0x21debfbd8f69de0U,
  0x3cc905eb20b80deeU, 0xd921e1000adeedd7U, 0x5c72e2dec04dddf0U, 0x1f04c4fab4ddc01eU,
  0x81172b22f81617ffU, 0x15b109e516046139U, 0xe6ddc5131bf0eef4U, 0x4adf23ae0f220f1U,
  0x4448dc09112d23f9U, 0xfb0f3df40ad61000U, 0xdbcd22200527df20U, 0x153b04b7b11f0d03U,
  0xd8f1e702a404faf9U, 0x22e5c51af2cbcdbbU, 0x3be9e847f7553543U, 0xcdfa15f0e191c9d7U,
  0xacce340717057f0cU, 0xb9fc0ae465f3d3eeU, 0x16e421de0c24c8fdU, 0xf7ae1a9ec8dbf2e9U,
  0x81d6f01698e4093eU, 0xeabc31cf214ca2aU, 0xeedf04b8f5a3ebcaU, 0x29f623c1f012c5d4U,
  0xc82b290c08cf1d57U, 0xb0cb19de2c1f0027U, 0xe6d033d3d5b91ea4U, 0xffc608d45adb5107U,
  0xece500eefa0106bdU, 0xdce4363b2aead919U, 0xf5ee400ef7f636f5U, 0x1819f5a90bd446f6U,
  0xb00a10462124d581U, 0xdae91106f3dc21c0U, 0xdcf531fcbad99be6U, 0xc3cc21da13c21d0aU,
  0xd7ef144b01f9153eU, 0xce9a63c7020630ffU, 0x9de030dde3b1f111U, 0x6bf1261f304becc6U,
  0x8123f567f8c4fe4aU, 0x35f713fed41107f6U, 0xb3f2efc6fc18aefbU, 0x82ddf91dd9567705U,
  0xc2df252a393abff8U, 0x1ed3ade8942210c1U, 0xc211f848f325f018U, 0xd1fffb17f6d8fd17U,
  0x31fcd70f69e52bedU, 0x18bceb0df3f7a77fU, 0xdbf52fee38e7d5d0U, 0xfde7443ae9030f21U,
  0xf62088147fbaf42fU, 0x1eab0b32dccbf1faU, 0xe4fdfbf5ede10904U, 0xca0ba0e4c91cfdd5U,
  0xdced23d989f1525aU, 0xd1f12803c1bb9200U, 0x38068d09c137c4bbU, 0xe0ece9ba55241806U,
  0xea16dbc4f828c104U, 0xd8d7ef2b192a06e7U, 0x38526014212428ebU, 0xff44f2df10f44defU,
  0x284ffcd5c6752510U, 0xda01070ffccdd6d7U, 0x58c4b7d6db153bf3U, 0x18d77f816097a7cbU,
  0x32f898aefd1f0b07U, 0x52f46c100ecbf5e7U, 0x20f7e8f7c1eec506U, 0x6a4195bdff3401aU,
  0xf40cd7bc1e021df0U, 0x3b08112e22bdc20cU, 0xe3b3dc81f212cd1bU, 0x25141fe6e8d80615U,
  0xb7be7c1ff848d666U, 0xf1ded5c011050ee4U, 0xbd68eacc8122ee29U, 0x17341ad3c30b1901U,
  0x4c159ec70aea38c9U, 0x2806d9e206f3fee8U, 0x438fefd6f3cb0d6U, 0x242e33f5eccad739U,
  0x10006412f6d95302U, 0x4ebc3f91d48f643U, 0xdcc6ddb90cb33417U, 0x63bbfd2ed7f21c33U,
  0x900f1129051ef300U, 0x1b810451a1ff29b8U, 0xc7510208f2fa2befU, 0xb04a10e43d5e511U,
  0xc7ee0704d1201cd8U, 0x46d9f9e59b301cc3U, 0x28190d28140781d0U, 0xdd0eea28ffbf0edeU,
  0x2ad4df0b5035fd17U, 0x2744fbbf02d25e28U, 0xe3d700f05108f90aU, 0xea281ca215b5f33aU,
  0x15e01606da0d14b3U, 0xf0dee4f3ef052409U, 0xcffdfece82981f9U, 0xdb06fefbed021af3U,
  0xebd0060f12d61330U, 0x12dc15e419fddbffU, 0x26f8af163bfbdef4U, 0xe8e92708f5f11711U,
  0xd8313be514600dfaU, 0x28b820017c212e2dU, 0x39f22febdf17ba14U, 0x26fb160ce209cf32U,
  0x9517d79d1bebf5f4U, 0x8135f0e83524c1f7U, 0xfb8604033664a00bU, 0xdf48000325a3e5beU,
  0x78c33af403ebff18U, 0x27df0420fcd2f4e7U, 0x470efebe06d3ff1cU, 0x21b2bf7137f13fbU,
  0xc3dd976180ada0cU, 0xaab0440cd451e06U, 0x3de9e3337f33d4ccU, 0x31c44616b32e197cU,
  0xe80ff1e1f7c1e7U, 0xf3fff3b6b9071f10U, 0x22211d0212fbe109U, 0x25d70af72a2db701U,
  0xe2505ec25ebfd18U, 0x23e3df0fe522e27fU, 0xcfd953fade3ca1ffU, 0xe21feedbd5eca218U,
  0x51ce390b17d8f523U, 0xd5e300040cd1fe16U, 0xe128f1db12a90703U, 0x9cce6cf2435a4ddU,
  0x2ce504e7ddfeeea0U, 0x1a25ce20181ff5ffU, 0xbdffe20b01f8dd06U, 0x4016c07ffcfb2cf6U,
  0xbede8cd0242c7f4fU, 0xb9befd27b1d72226U, 0xde71dd3f1c60bf2U, 0x41172e1ecbfa1dfaU,
  0xaaddc00f3229f611U, 0xfe1bda0f4c9e2931U, 0xcf05b11a220dd49aU, 0xda0ed5c2cffbd2cbU,
  0xc42b33f508e131c0U, 0x1618f83b39f3edd2U, 0x7495402db47192fU, 0x170ec33aa6031c0eU,
  0xf61e6645de100c26U, 0x10f5fadce6e22a00U, 0x15caf008bbe40322U, 0xeee27f8cc0cff3eeU,
  0x6fe1a09b049b7ffU, 0x2323f0d04a50512U, 0x44518db0630211fU, 0x310af30ad3254981U,
  0x2b90efefc3df040eU, 0xa1f0b6f71c2cbef6U, 0xe452320c1928f0a7U, 0x1cccdce0f6f5d95cU,
  0xe3f72bfbe9bdcf04U, 0xf2f1032a0dfef803U, 0x721347fcc114afdU, 0x120636061f9d06d9U,
  0x252e0d3b2a05dcdfU, 0xd6f0061127eb2604U, 0x13e7ee5b0e030dd7U, 0x3b60eb1e20f01d09U,
  0xb7d3b4f41328ec26U, 0x1fc33dc40b5309c9U, 0x2d4d0e361ba1aabU, 0x3ad6f52ab5e369e2U,
  0x1ecf2a06260e26d8U, 0x4edf214e9bf00adbU, 0x520f3c90db43c2fU, 0xdf7fc4dc2dd3d914U,
  0x83ba203a2f33f5f7U, 0x24d64334fafc364dU, 0x2c150d1738361ee2U, 0x2efb341c402137e0U,
  0x601b010f98c8300aU, 0x33f80ad4a5cf3738U, 0xd9f1204a58152560U, 0x7f0e2dca3acadc30U,
  0x40e9480caf2bd679U, 0x9f8f2fefdc7f514U, 0xee28eff2a1ef50d8U, 0xe72856f9d8073cfaU,
  0xf915f648ea44ed35U, 0xce06045baffc18b2U, 0xa7fce304dcf11628U, 0xcf4a1c498132f90bU,
  0xd6edfbeb16edced6U, 0x95ac1060b210decU, 0xdfcecaf5cb0bc781U, 0x24f8200edb04f9e4U,
  0xab915031e16c90eU, 0xe2da22b430421928U, 0x27e40dc8e21b13f6U, 0xb35fbb1040337ceU,
  0xe60f0fe872135bfdU, 0xf5221ce7d413daf0U, 0x7c710fafae3fc97U, 0xfc3be93a0af81014U,
  0x25ef3278d3381dbcU, 0xd3d18e618e47ff4U, 0xf819d9ebb6e7f1d9U, 0xc4f637e7ffe0eae7U,
  0xc705ecccece0df0dU, 0xe6ec13e0152695daU, 0xf131223410dc5c43U, 0xb9f7f6f755389c7fU,
  0xccf6bdee2f5c2a3eU, 0xef02c11dde8df1fdU, 0xcdfa03d9e1d02230U, 0xfbe89dedd5a88a5eU,
  0x2660d4e406ef040dU, 0x5152c3b7dfe2b91cU, 0xd7cbedf771c9f40cU, 0xc9e2b70a7ff6df3eU,
  0x14aa0120f4ee00cfU, 0x21abd3de85a7789U, 0xf4f31d5bb1b80f25U, 0xf81a192a20fc17eaU,
  0xf82214e81ee95010U, 0x700190ff10c25fcU, 0xfc3b179f3309fe0dU, 0xf004e9fdc981d204U,
  0xeef150fbdfaeed2U, 0xf913e8f1db37e0e6U, 0x1fef032a19641705U, 0x430e1dffdfe2e4baU,
  0xe4a0bc927f10ef4U, 0x60b1b982bc89e4eU, 0x53da7f27df1db43aU, 0xc13ceee31a0fc9cdU,
  0x26a3dce6f1b4b8ebU, 0x2c4008d4fc295429U, 0xd70c46f926c3eae5U, 0x21d73cc31f150ec2U,
  0xf2848def22c3d535U, 0x1dc5de3281fcd604U, 0x20e61addb23326f0U, 0xf215ec1207ba1718U,
  0x8111c41de440027U, 0xed16174c082612c8U, 0x4dd89f2c022e4539U, 0x833a7d214b11e0dU,
  0xf6fa4ab81d0c892dU, 0x336e68ae8c924ffU, 0x935d523e13e499cbU, 0xcf26b6d52bdac9c9U,
  0xe8b82cd2b7dd2510U, 0xb67f0235a4fef321U, 0xf54d4df5226fe915U, 0x2f71c72f6288e0feU,
  0xe4012d5181060c2eU, 0xd194f9e1d5e22206U, 0xdfec3f29990b0202U, 0x2d27105f9bcf0ad8U,
  0x39fde9e5eb1b0236U, 0x84bea06d8c117e8U, 0xf4240c09f41ff2f3U, 0xb3106d1c4d3ba4dU,
  0x7fc54815ff181420U, 0xede411dcca62104aU, 0x8d70f219808effeU, 0x120195cfdb0800b0U,
  0x4244ee00ccf43dfeU, 0xe18e25ed10be6fbU, 0xfb3421ea05f1d5a6U, 0x3b2e9b4de68bb1e6U,
  0x965fffff91cU, 0xb650000149bU, 0xffffb31bfffff0c4U, 0x985ffffe28fU,
  0x35b200000b2eU, 0x11eb00000818U, 0x3707000011d1U, 0xffffe566fffff92aU,
  0xfffffd47000003ceU, 0xffffe3cc00003380U, 0xffffef380000008fU, 0xfffff05a000019fcU,
  0x1645ffffee31U, 0x91900000e6fU, 0x19c4fffff2e6U, 0x1d74000002f9U,
  0x23920000390fU, 0xca500000367U, 0xd0d0000310aU, 0x1ef00001321U,
  0x1a35000001cdU, 0xaa900001612U, 0xc1bffffd82cU, 0x25af00001318U,
  0xfffffefbfffff025U, 0x1dc0ffffe552U, 0xfffff889ffffd437U, 0x12800001a7dU,
  0xfffffec400002026U, 0xfffffc6c0000001fU, 0xa8a00000b92U, 0x52500000c83U,
  0x13900e7fe3c427efU, 0x7fa44b825e3e0319U, 0xf01b9a25e9affd41U, 0x4f12d4f76990ba9cU,
  0xe316bde91feba8f6U, 0xbeef7f06ec812681U, 0x81f8f50f9481f381U, 0x32d8eaebdec52353U,
  0xdb94c8eed0e04d10U, 0x138f58aa337f291eU, 0x552c4020351127fU, 0xea0053f2ffd2b2c1U,
  0xe41d52ada5b981d3U, 0xfcfa63e581d6fbbaU, 0xee81811398e339afU, 0x1a7f3881c281687fU,
  0xd2b7da5ed67fe081U, 0xa53c7d81e34f1a3cU, 0x9fbbe220f202b27U, 0xfafd81f97dfcca81U,
  0x36442eeb0c81131cU, 0xce055bf8bddc7e7U, 0x3ba0cce5b36762b8U, 0xc917812cc3e48157U,
  0xf402381e1d0bdad4U, 0x2aa33b07c4df030aU, 0xfb9fc7f927fe333fU, 0xfed8d8ea7c81dba6U,
  0x1cf6d8ea0a9ece0bU, 0xccd9242d1fd7f286U, 0xc2f300f996bfd619U, 0x381aea00ee0bef34U,
  0xd88111dda7bffdefU, 0xb8ac811f11de3feaU, 0x3ddff8e8f37f045eU, 0x4437d6ec05ca0b81U,
  0x3ca08fcd2fea7feU, 0x7fb30f2fa067f06U, 0xd2ecf302a6f181f1U, 0x91b0b18d2c81d2fU,
  0x81d63210dc13e5f1U, 0x54807fad012ea3aU, 0xefb4cefb2102636aU, 0xdef497f62afdd0b4U,
  0x1054fad0fcdbf234U, 0xfad449fe1e0f39f6U, 0x3de9fede814dc7aeU, 0xb6f48c1af8e804f3U,
  0x2ccece4321dd1c0cU, 0x69f48c78805bfd5U, 0x7f81c79350fc65deU, 0x7f8907024c8619bbU,
  0x281a46813bacdb2cU, 0xd9b4f77ff1c382b5U, 0xa8ed0bbee2cf2039U, 0x7f36961efc2bea1fU,
  0xc4ec17ee81ba7fc5U, 0xdb8456ee8121817fU, 0xd038c817fdf38dcU, 0x4fbab07fe9b57f22U,
  0x227f7fee81e6a02cU, 0x3ebdca28d8f4b1daU, 0xbe244a8127ff243fU, 0x20cd784f81fce917U,
  0xc40e7f36f5de4c21U, 0xd97ffb03dafadc1eU, 0xcc9d819f10167f99U, 0x4981ee287fcbcd6aU,
  0x7f77dc9ee4e1f57fU, 0x7f81da56d5571f35U, 0x17c4eff50e19d5e7U, 0xd320be493224a411U,
  0xffffef82000016b7U, 0x31ec00000d1fU, 0xffffee7cffffe870U, 0x21d600003c03U,
  0xa02ffffead4U, 0x247dfffff699U, 0xffffe28500001b25U, 0x2a900002503U,
  0xffffceafffffdc90U, 0xffffe86cffffe8bdU, 0x399b00002016U, 0xfffff0e6000020feU,
  0x1d36000031e8U, 0xffffcd2d00003290U, 0x22b5fffff7a7U, 0xffffdc1800002b8bU,
  0x3b95ffffe920U, 0x15af00002b24U, 0xfffff0aa000021bdU, 0xffffee21ffffd3d7U,
  0x48f0000214aU, 0x230c00001bf5U, 0xffffe16cffffe785U, 0xfffffc0500003914U,
  0xf9700001694U, 0x54cd000006dcU, 0x135a000019ccU, 0x175900001d23U,
  0xa00ffffdc1bU, 0x167b00001af7U, 0x2995fffff3d5U, 0xffffed1bffffeb68U,
  0xf5121fcffc0d81f3U, 0x118837fb1d1d1511U, 0xe155c518c2f4c3c7U, 0x31d5b5f7f2099157U,
  0xd7cdc4ed12fff952U, 0x180c2e1e141206b3U, 0xb31a93d63441ee5bU, 0x2280c1401e0551fU,
  0x599e2118f1f5c311U, 0x7f4cffd1cbd9e3f8U, 0xebdf1f2070e3816U, 0xccb91e3f3a4fe96U,
  0x152ff61223bfe70dU, 0xd722e61ddde4e3fdU, 0x64c1e826a5edde06U, 0x31e616d70285f8d4U,
  0xcb040b053953e4d5U, 0x19f337faed21c19U, 0xe505e225ddece238U, 0xc7f812dcf6e902c2U,
  0xe5f2f4263fe1fdf7U, 0x40565d340db34feU, 0xfbf5bd05eb42efbcU, 0x1c1426320017f3f8U,
  0x1042a81e2890db13U, 0xd8b4ef04ae0afffbU, 0x47315db6e1fafa4bU, 0x810acf02d4aef2acU,
  0x484b594e1279f130U, 0x4e47ebd14a8ea705U, 0xb4ecb9a311eba013U, 0xad3fe3ecb32e1007U,
  0xff0fb202ef41bb0U, 0xe8d947ca25e50f1aU, 0x64121c1781ffd2d1U, 0xfb06de214b17fa72U,
  0x5e7d016f7ddf35bU, 0xe7db2927bc2ae723U, 0xdf71f62c2ed7e7e1U, 0xf5f1fd2a1447ffdbU,
  0xeb63022a0adc2c15U, 0xdb2d5d0ea5f44ad0U, 0xd1c1f646b6e30a95U, 0x3d12bd160f4d27f1U,
  0xf8f71d5ae249ec2eU, 0xbceef7fd91702edU, 0x2848cd324a16e7fcU, 0xb702e0181f1e0e38U,
  0x28110ecdc260299U, 0xefc1c0428c90423U, 0xe9310a3dd7e217bcU, 0xc1e70bd400c31929U,
  0xeadce8f646f4feeaU, 0x2ca9f1d4194c1e10U, 0xffccc085ab71cd1U, 0xed1fe0ffe5f7ccfbU,
  0x1a18f230cf150c87U, 0x1c05140fc74a2fccU, 0xe6fb0101c3f243e1U, 0x10605f1ee733dceU,
  0x204cff113629cc24U, 0x700523e2d27f561dU, 0x4cd6e2df152824e0U, 0x261d060503a51829U,
  0xc9b9051bdde8be08U, 0x301211a45139baebU, 0x392adbaefcf91cdbU, 0xd3e311d115ed1207U,
  0xd7181cacb12340ebU, 0x33faff3dc14fb08U, 0xe6e0fe177ffd39cdU, 0x6271c4f48dfc4e6U,
  0x7f1808edf70b30faU, 0xbfa24ffdf20fffeU, 0xcd91b2d1703f404U, 0xd09d03b52bf12cfbU,
  0xdb0fe7361125100cU, 0x1123e9bc9308da05U, 0xdd0206fe111616f4U, 0xe8f200e23a0212ffU,
  0x9d52b30aef05883aU, 0x360dd382e1910821U, 0x421729e5f056328cU, 0xd272f12c461e20feU,
  0xadee8d71227f104U, 0xc2ea2305307f629eU, 0xf98ff4b0d78cce1U, 0x21cb124ae0b0de2fU,
  0x22c8f708fc21ee16U, 0x171ffbfe32f10b00U, 0x2ba3fd81d60a09c4U, 0xf10b3d15b9cc29baU,
  0xf508f7c006c84eb5U, 0xc2381dfafae80bfbU, 0xefc904f32f1c6d19U, 0xd8210ff6ec11dddeU,
  0xf0bd2e013fa35edU, 0x1c140afac8160e07U, 0x5cb6eba8160ef3f8U, 0xea08452cfa8101beU,
  0xe44503cc73630d7U, 0xdf6af0e9fb09d513U, 0xe5f3fccf26fb32e7U, 0xfad706ff00e6d1d9U,
  0xf614fd0ca7d1943cU, 0x3445faf1f6f82d1dU, 0x2e9a52b1e754105U, 0xe2dff50f27c029f2U,
  0xae93ef7fdc28b1bbU, 0xeef2e7171de5b849U, 0x20f9fa01d2f10906U, 0xece4f2c09fdc6edcU,
  0xfc3cc7e9c10d2d08U, 0x428421fd7f52712U, 0xf10d101adcf8e2d7U, 0x1fdf3b0cf522eaefU,
  0xbd3a2d241bdfe634U, 0xfc2dfb07e00d21fbU, 0x122ddf371e081549U, 0x7ffb491a3ad00f35U,
  0x802d740ca2eb0ecU, 0x6c07f6cb1aed2be2U, 0x14b0e31604573281U, 0xc01491f13b40935U,
  0xabe5b70ab5f7c12aU, 0x1454f229d4ed05d2U, 0x3e357c2a6f9d02eU, 0xfbddfcee28b3089eU,
  0x274633c2e6c0f7b4U, 0xd50b93cb451eb734U, 0x9458b969390aad40U, 0xbe6be9720191fc35U,
  0x52f4e61228ae32d1U, 0x81d30266ffd11816U, 0x6e3cce65a2efd4d4U, 0x39607ffe2c22fceaU,
  0xf1c4cdd208e8dff9U, 0xf61115eedbf1122aU, 0x7ff7ddf0f042e0deU, 0x14d6031ceff00bb8U,
  0xe5fc3cd2b6eae3f0U, 0xc9040332d9e0eee6U, 0xc6f13803c40510e6U, 0x5e0c420e0b635e5U,
  0xdde8eea6093d13faU, 0x540ff9f612e65cedU, 0xf3f519231fe0ead7U, 0xe5ede310469e3105U,
  0xd7fbee2a121642e8U, 0x2faf01ee2f564fbU, 0x461530130a260c81U, 0x1693fb1d23b9fbd8U,
  0x2ec5fb51b8d8e31eU, 0x12f531cef92af4eaU, 0x187fedf417fd2412U, 0xfad3ac123720efb3U,
  0xb910c6f815cf3d90U, 0x1e8150623c61646U, 0xf835c97bf60cd833U, 0xf7f3f6042351f815U,
  0x5d0b14ce116610b3U, 0x7f43f6be403a9816U, 0xd9ce93d52a4533d6U, 0xd9b717dee3c724c9U,
  0xfadcde4ae51968e6U, 0xffdb4ec1afbcc40bU, 0xfcfdefd1e35a002eU, 0x9ec450561dbe7d4U,
  0x7f2b3d7edd7e1fbU, 0xd4d41911f122c6d6U, 0x5010b837d6b3f3d5U, 0xdd01a5f029dceaf4U,
  0xa2dbfc5dd40dfaafU, 0xdbd0dc330f496f5U, 0x9cdfdb19e720e381U, 0x45dfe7fce690d204U,
  0x38109e4cd002310U, 0x2ad5e6f9d02705f0U, 0x29d7151dd2c65e04U, 0xb51f9b3d2110101eU,
  0x4a1ce9dbab37f5ddU, 0xdc55ef32e1c3245aU, 0x1bb2da74deb4823U, 0x59c5df7c322bf9c4U,
  0xdc738108c5a185d5U, 0x9154edcc6c0eb2d3U, 0xe6a41bec27c7a5f4U, 0xaa69fed72de92abeU,
  0x93aaf3d0630dd6ceU, 0xfabcf8b8d478e735U, 0xc8650b320fbe09bbU, 0xd1e175f8dc2d0ae8U,
  0x9bf2c23f18131719U, 0xd50b33c4d10b0115U, 0x4df6ecc50e7f3e47U, 0xbac94abc0c035ec6U,
  0xba33ce3349012cdeU, 0x241c024dc7cf4000U, 0x1dcffa02e60de90bU, 0xc9ee0ee4d0b948a0U,
  0x3807e505afead215U, 0xd9d7c82be7e51feaU, 0xe1d021111dd4a8fdU, 0x21d52b051c1ff7f5U,
  0xe819204816fcc912U, 0x14e3e0d2c1d7f139U, 0x144a0d2625f31941U, 0xdf81f3cc4af7d07fU,
  0xf2d84b0934137f21U, 0xfc4c5bd7e116b8dfU, 0x481a0725c6f92a0aU, 0x3cceeacb23f029feU,
  0xe63728e9e400f355U, 0x4b30f6bafb8ffa23U, 0xcf6d7d0cc0826e3U, 0x1ff0383f57c2c394U,
  0x240809e014a00b04U, 0x95e247a7a520e720U, 0xe0af3f225e108fbU, 0x2f2d030aa7d5f746U,
  0xf5341af2fdfdf5d3U, 0x160c2a00e1d3fd56U, 0xc459e6042dbadadeU, 0x38f3b7810e1af026U,
  0xce30b3f53a06fae5U, 0x280bb4ace6a73deeU, 0x104d12bbb3500dd4U, 0x2a2b0efbaebcefd3U,
  0x862716cbfa818d36U, 0x11aff812c2f73044U, 0x16d15e25e81ccff4U, 0x1fc9ac121da541d5U,
  0xe1c4ebd2d881baU, 0x6e0f4102ec3fd1dU, 0x2de7fed90f0a1a98U, 0xd610d43dec2baf06U,
  0x1db4fa1b370c16a2U, 0xe3340e541a14bee5U, 0x2b7d40738ece5e1U, 0xd840c8ffc2d3e123U,
  0xcb0ee7c2d7e8f61aU, 0x72ef8e1171ee52fU, 0xe39dd1b5f31a7f2fU, 0x92b0a2f24e4ecf0U,
  0xcbfacbe7ed1b05f0U, 0x20b9ecdb34181204U, 0x3a24cff941b503caU, 0x3f09bc01213563bfU,
  0x30e31136b1290f2dU, 0x1eeb5623bf87f17U, 0x22f735f7c4516fdeU, 0x2b63afd32621ea1bU,
  0x3b05303ff60ed6f5U, 0x3ec8e40dd8f8d239U, 0xe422d075452919ddU, 0xd8dbf0caeaaeb35aU,
  0x171bc7effef91318U, 0x340612ecc008fffdU, 0xe80be0e010dbfc24U, 0xc81e2d310e518f0U,
  0xff21fd26fd05e6f2U, 0x5221ceedc9df515U, 0xfd2ff61417f7eee2U, 0xff081e480bf30fa7U,
  0xef6febfd325c16dU, 0x7260ac9f2e5b82eU, 0xd0fe3e6e10c1fc5U, 0xf80921e31494f010U,
  0xc219fb294409d400U, 0x1510c82ed5e9cfd4U, 0xd3c78cc4e34310dfU, 0x2a05d125c7811ab5U,
  0xbc1d04f011e4f30bU, 0xe425fd29e4e0d204U, 0x1f070f0ef8f4d601U, 0xe2e9eceaf8ef8133U,
  0xfb2f002ce909ed08U, 0xff2adfd9f1071bcfU, 0xa0cd91625b9ff10U, 0xf132d0fef4f5fdfeU,
  0xdaf0e1924950feccU, 0x13a427a4eb4906faU, 0x9dbe9febbdd1ae0U, 0xf3cd23efdaa8203cU,
  0x4c1ce0d6f27f6533U, 0x48ee446503ade00cU, 0x9ae65bbf094f47c1U, 0xfa0fc11619b8fd38U,
  0xcbdffb0fd8c978f6U, 0xc1065a1bc0f4e6d3U, 0x1326082009eab9f1U, 0xf70335fc52fc8516U,
  0x23ffdb03d52dc72fU, 0x63007070bc305d9U, 0xd9ffdfff26e360f2U, 0xe338f731ea49c87fU,
  0x3618c60ee10ec5e8U, 0x1df4f3a9b7f1f9e6U, 0xddd91bdb3f0ebc19U, 0xeada2a48021e34eeU,
  0xc71c20f91e1429a7U, 0x357fd211adeb0b0eU, 0xf1fe97f83b3f24ccU, 0xc4175c26d0fd9d15U,
  0x9fee3e3fa3c1b4fU, 0xf319f8f47fee06f2U, 0x2be305f0d44808baU, 0x7db0419b0d603b3U,
  0xb60e819b735f028U, 0x60e140db9ea07c8U, 0x10130de81e11eb03U, 0x400e1b6e7c9dcU,
  0x11cdc903266613e3U, 0x1e9e017e4201fd5U, 0x38df17ded4d82d1fU, 0x1c0c487e2ea906fbU,
  0xce17f4edbd7ffb06U, 0x3af801cbcebae8dfU, 0xd363cd274bfbea00U, 0xfbf908073d01f44cU,
  0x2925fefc28160512U, 0xdd2808d1241d2017U, 0x17f71a06b0f5f1ffU, 0xe92cf7cafd00000aU,
  0x7ff1de22d432c643U, 0x60ff25ecec1eeee6U, 0xe2f8c83a5ed72923U, 0xee38bdfcfbe4010aU,
  0xd1e4a955393405c6U, 0xdd25b2af21b4dc81U, 0x2fed183b7729bacfU, 0xcb2213cc0c1ac2e5U,
  0xc9cacf1344ebced0U, 0xd86be90a0715efd6U, 0x5fd8f2eadfede017U, 0xdf22dfc71fa1042dU,
  0xcc27c623fd1b14f2U, 0x1f8fa301b6cbeb2cU, 0x3e5ccc30854a6fdU, 0x1b1800091df30624U,
  0x81161edf56fc8d4bU, 0xddf7daf21c0245f7U, 0xb9df2602b3002915U, 0xb0d09e0ca1a15a4U,
  0x7d43e3fbbfbdbc4U, 0x86e32e0c74b6b3feU, 0xc204cac9f5ee2deeU, 0x20129c0f06430e45U,
  0xe6c692a57407e38fU, 0x1c7cbafcdbf0e0aU, 0xbd01fb0d2201e46U, 0xeae7143c32815e34U,
  0x32f6dce8262f04eeU, 0x57310838f113ed08U, 0x7ff824e9f94af361U, 0xe51be5dd16114233U,
  0xee241e0b0261f706U, 0xe0f8fc1bd900e7edU, 0xd5372ddfe60813fdU, 0x1bdeef21300052efU,
  0x1be02402bf41747U, 0x2c0d01810dc7c3efU, 0xc9ed22c11344e1e8U, 0x15b4cdaa05a4f5c3U,
  0x2d02c6f400ed0830U, 0xff55a03a0ef724caU, 0xf2eb00b3d7f445a6U, 0xa2edf128e6e4eff5U,
  0xafe3554bcafcc020U, 0xc37d4de3dbfd63bU, 0xcad8cb00e04a78ffU, 0xdcd9022632522050U,
  0x1409c77fdf05ead4U, 0x8c03259ae0eb41bU, 0xdaf80da7d52cc711U, 0x2cc0fbe4231878bdU,
  0x570532f31aeee30fU, 0x4abbd4bc6da264dU, 0xcf31ec41efe8ce18U, 0x189ef3d0ff66d5d4U,
  0x1bed0f410abf0810U, 0xd45f1cf00182408U, 0xbec430152bfe7fd6U, 0xedbf2ef6256e22feU,
  0xf83d0b0bd1260806U, 0xd2b14825f81ab4c0U, 0x2d39f33e201fbcaU, 0xff0027cbc20f5850U,
  0xe0c800c7ff070ef1U, 0x3decd40b217fdaa7U, 0xe1b3f304c9f3ca09U, 0xf3ec0afbc054c208U,
  0xc0f70b20684e26abU, 0xe819f61556edc7ccU, 0xec1b13c65edeeef0U, 0xf170e200dbfc1ebfU,
  0xcb0003fc006ced11U, 0xec0e00f80713e6f7U, 0x909eb0cf527678cU, 0xd212c3fb81859a09U,
  0xc901f50536fefde3U, 0x43361ee1f1d7e0e6U, 0x1daa05df1233c401U, 0xe2933581b6f1e3dfU,
  0xf61a0afbdf0606e9U, 0xe82549c30a11f1faU, 0x1bf0f40311e6f318U, 0x203008c6b2ea282aU,
  0x2ae92229d9fac609U, 0x231e01da181ace0bU, 0xb1b81eca09f8d1c4U, 0xd9116b060e17f02U,
  0x2ae3b75d1e131bfeU, 0x2b36faf0b4e0d80dU, 0xe83e29ba1bf9f716U, 0xb34223f2d91f5ebU,
  0x45efd4e3f4322d24U, 0xfacef102ee06bffeU, 0xeae700b8d031dfcfU, 0xc6c31be3d1dc670dU,
  0x350e03795ce9f7U, 0x5e7fbc0ef8b4b2d3U, 0x428cbf22d082eefU, 0xf8f72b94c1d571c9U,
  0x5fffe8c1033090fU, 0xf3bb30090ec206ddU, 0xeb414b709906fefcU, 0xe4711e0305da37ceU,
  0xe62906222242d166U, 0xd1c9ee3c285435b9U, 0x50bb330efee65ff9U, 0xa6f63281ea0cd7fbU,
  0x14e723434efdf51cU, 0xd28110d8212932edU, 0xbbe2be0972f1f5ecU, 0xc7d5b64edae6c94cU,
  0x4f011749dcfaf0d1U, 0xa4bdb0befe1f711U, 0x1150d2aa8715dce0U, 0xc42e2ad744f9f1b7U,
  0xeed9e8da460af11bU, 0x2841f9a40def08a2U, 0xfc9831d9de1ef7bfU, 0xde4dcef05f65009U,
  0xcd7e2e4daf9e0ffU, 0xd9a416b0a2000f13U, 0x381600be73a05e5U, 0x3acc20fd0ed80dd3U,
  0x27d8ced60e121df3U, 0xa30c09fce952e2dbU, 0x4c8e70cf1fc1cf0U, 0xe192dd120ab848faU,
  0x3f5f50d10170410U, 0x1f06038baeece512U, 0x14e706a90211eb0fU, 0xa0528f1370c2681U,
  0xd3fbe5fa3b0edb1dU, 0xbf3610e02bfd22e8U, 0x12efb6185d0f22e9U, 0xcb3ecd365d34f6ebU,
  0xbdefb6bcecbc0f96U, 0xe8108e3f9070c2eU, 0x2e14214cd8eaf4dbU, 0xedac5606bff00bf2U,
  0x7ade29c86ec7decaU, 0xeb1e2ce9e511db5cU, 0x2ded11597fc7e88eU, 0xbd32162e29f6b454U,
  0xb8ca9fc826ccbf87U, 0x6da5bdd9c88c1ad4U, 0xb17b281aad006104U, 0x1a1fe39c32e49c15U,
  0x1017fd730fb44836U, 0xe47f52e3024f1586U, 0xe1cd96af462a1fc7U, 0x2dbbb1ceb5115be4U,
  0x15ecf4cc502244bdU, 0x1f7c2ecb62181987U, 0xcc132481b148b5e0U, 0x1a1d34ca22bac46bU,
  0xb8f3478df2e9f4U, 0xc292bba0efcb1ee1U, 0xec048ebf2d0ad038U, 0xd0e328f017bcecfcU,
  0x2e62e5147bf9bbd8U, 0xd1efdbf5090c2be1U, 0x5811d2f6c3d89881U, 0xd8605ae11bb84ab0U,
  0x4240942e84ec7f3U, 0xeb2a58e9ca28c9ecU, 0xe6059dd3f44cc539U, 0xce192ebb15fdc75dU,
  0xe20926d92ffd03f6U, 0xce9b1fe60effc8d2U, 0x24e609cb13274cfeU, 0x4981160701ff1bbdU,
  0xcf0bf50b3200e4U, 0x5deee5d63aa70ffeU, 0x393b403e5385157U, 0xf02feeccfbcb4c2U,
  0xd38c005df2129eeU, 0x45107ff50600f2efU, 0xf819fcaaf0381fe3U, 0x2317212012fea8ffU,
  0xff433940233bfe4bU, 0x6fef02706165bc8U, 0xef2dfa22a4df1e10U, 0x9b04ffe3f72daea4U,
  0x1f5a49a2f3bdfefdU, 0x2bcfff4f01e725e1U, 0x44eeb9f6e9c71ed3U, 0x47f909b6627f020dU,
  0x2ced00000bc9U, 0x232efffffe88U, 0xffffe2e5ffffedc0U, 0xffffde58000016b9U,
  0xfffffe300000102bU, 0xfa500000351U, 0x2227000007f1U, 0x2701ffffdd6eU,
  0x3646fffff070U, 0xfffffff10000031bU, 0x515600000c48U, 0x255ffffffd93U,
  0xd8200000da7U, 0x1ca50000037aU, 0x246500003975U, 0xffffe42a000011b3U,
  0x3ea500001908U, 0xbe00001934U, 0xcdf000003eeU, 0xfffffc28000009bcU,
  0x287bffffe922U, 0x33cf00001d88U, 0x2e60ffffdb12U, 0xffffeeec00000acbU,
  0xaeb00001014U, 0x1433000025aeU, 0xffffdd70000004a0U, 0x316700000fd5U,
  0x116900002aa2U, 0xfffffe6600001938U, 0x111e0000364fU, 0xfffff85000000c0cU,
  0x7f22a54818607f1aU, 0x24cb9012b9040145U, 0xc87fa21dd0dbfeefU, 0x65e742fd050f15c2U,
  0xaec821fb5ce3b7edU, 0x511416f041f30b1bU, 0xbed5e2c215f145d4U, 0x283da310d9e20430U,
  0xcaeeaecf35c0e61U, 0x81ecd44c09d7fafdU, 0x8101247f819f7fcdU, 0x663d02fb7f56e0d6U,
  0x2da0f0732481964aU, 0xb1143381019b7f31U, 0x81f90f48f7037f5fU, 0x3853897fefa1fd3eU,
  0x1cdc9841f01e3e55U, 0xf7d512231bc3161cU, 0x9ae1d542077f7c81U, 0x25ea81df20050e81U,
  0xa5e0157f4bab0d50U, 0xb00b7fd7f300f841U, 0xace1b2fc2dffca0aU, 0x997f9051af18067fU,
  0x3a70a172231f0f57U, 0x360f8f14b609da67U, 0xe6558119b3e6d812U, 0x1ce609ee0ce70ec1U,
  0x22cf9e923f72dafU, 0xce7f4ec182b0315U, 0x3f481bbe2fd243aU, 0xb911afdc1abafadeU,
  0xff210dfb01eaf40eU, 0xdb03382e2d100b36U, 0x3f0ff4e8e4a6321eU, 0x17101ba8e8ba4e0cU,
  0x5cfac3cacfec05adU, 0x81f8feaa0213e806U, 0x2e27ad36911e4e18U, 0x2f4d514e8dddac3U,
  0xa5ca37f14d9f47fU, 0x8d07f2e13bde77fU, 0xadf9c01454ddeb12U, 0xe6f0bccb09d404faU,
  0xd524f9040f067f81U, 0xae0f009e738f77fU, 0x7f8abfc2d13e1edU, 0xd60a81edcec6eff1U,
  0x3f21b73d7ff00825U, 0x19fb9da8a9543fd3U, 0x27310811c421ab30U, 0x9be7f42d110f81f9U,
  0x7fef69f17f0f5cfeU, 0xe0043325b87ff819U, 0x981b381e87f5781U, 0xcd1302e3c2811539U,
  0x157981cb3581df5aU, 0xaaed1981812b7fc5U, 0x4c00d0d8adefd730U, 0xc23be55d187fea2cU,
  0x45c07fe9f6f544b5U, 0xaf7fd9ed812b09dcU, 0x48e6dc24631e4ba9U, 0x7fd32b0681877f35U,
  0xf77fd7541492ee4bU, 0xe6810e970d811905U, 0x219ff71ef1f63566U, 0x8181ee7fe67cbb43U,
  0xf77f23f027fb7ec8U, 0xd77ec4ce596b323fU, 0x3490db017f7cde18U, 0xb3154ceedfd1237fU,
  0xfffff6eeffffb8f8U, 0xffffde68000010e1U, 0x492cffffd5b2U, 0xffffdd04ffffc50cU,
  0xffffef6fffffe5eaU, 0x1f7e00000eabU, 0xbb600000ce7U, 0x149600002003U,
  0xffffebedfffff6c4U, 0x2afa0000170dU, 0x24ccffffe579U, 0x1190fffff254U,
  0xbd0000016c8U, 0xffffee30ffffe60eU, 0xfa2fffffe02U, 0x93000013a2U,
  0xffffddb900002656U, 0xffffd68100002175U, 0xffffea91fffff4a2U, 0xfffff3c5000008c7U,
  0xffffeec0ffffe1e5U, 0xa6affffe83cU, 0xfffff6130000293bU, 0x31b7ffffdba8U,
  0xffffd66a00000881U, 0xfffff886ffffdec2U, 0x43c100000b7eU, 0xb2b00002536U,
  0xfffff05bffffdb49U, 0x2b4500003d19U, 0x3e20fffff119U, 0x16d2ffffdc0bU,
  0xbce1348d8eede6fU, 0xf35044900e61c91U, 0xc413d0d5f80dd7fdU, 0xc6ed21be1f52ff33U,
  0x1bebde0dc8c416bfU, 0x3bcf46f9332817cdU, 0x120beaf81acc33fdU, 0xe81e0f2caffd0abU,
  0x11814eaded031618U, 0xb52aef50d202ae8U, 0x96432a34ed302834U, 0xc6e4dcc721c95b1bU,
  0xfa9fe707746c04d0U, 0x431924261e9b17e3U, 0x7cfe7e30658f9e1U, 0xed23fd615a64f9f9U,
  0xaded56cf0478648U, 0xc51ee3e0f7bcbd23U, 0x3c8dad4b8c9dcfeU, 0x363ae73c3449d41fU,
  0xdd22e1fddd977fa7U, 0x20c5cd4342401e04U, 0x3bcb1c62dfbcfdbfU, 0x2fffdf0836dced96U,
  0xe43c1dd6d9a15a00U, 0xe134fc81bc1118f6U, 0xd47cf835f8ce3dc7U, 0xecdd43e434ef16b5U,
  0x1a0e4d9cfbb7f221U, 0xd3a0914a4e716eaU, 0xd433f0dc44032c37U, 0xcb4e06619ee251eU,
  0xd7b54ac72452feffU, 0xf5d3f59cd2a25705U, 0xbbe9c5667f20b055U, 0x9f321e1420ab8feU,
  0xa61b8ab77240f1fcU, 0x8fce800782ded13U, 0x19d90efb0c2102caU, 0x2155cebef7eecd07U,
  0xce2ef2cf745ff45U, 0x14db2c3f3116a314U, 0x35eff6f234e9962aU, 0x4c9d2c32fc062d1bU,
  0xf7db1699353a3d0bU, 0x7fe0323106bee2U, 0xfa2f2501bf14d210U, 0x21f6c38c445216c1U,
  0x425bde6ed0efdb8U, 0xda2bdc60e7cae520U, 0x2d00e61c2a0528e1U, 0xf70cfd1fe7210bf4U,
  0xf612d7faf900f27fU, 0xef0b30c32af20fe9U, 0x29c9de11c423071fU, 0x23d7351cdb1bdaefU,
  0x38d01b0c12a324d4U, 0x102beefeedf470bU, 0xc1bbe05de027cae7U, 0xe208dbd6ec2af3e3U,
  0xede007cb0e6e7fa7U, 0xa7ccead88b98dcc3U, 0xe73c0c4315d81c11U, 0xe1e7aebe2ba5e7U,
  0x9209e9f6590925ffU, 0xf1e8eff4ccfe0dbcU, 0xc12a3c2c1b460721U, 0xa3ffcad4c80d200eU,
  0x4ff9f3f1080f2536U, 0xe8c91efcddaa1bb4U, 0xd1120edd22fd37d7U, 0x64137fc8b4ee36feU,
  0xea9150db060322bdU, 0xe610e1b6cedcf50fU, 0x9eeae92b2e58dae9U, 0xf2fb9d0bef0f826U,
  0xc7fc0cc306de4005U, 0x3be727fdfddd7febU, 0xffe42c2af01f3104U, 0xef4903d9f8042bc4U,
  0x9b1109be34db1ef3U, 0xfe363bdee809b90dU, 0xecfc3f35542420f9U, 0xf819e658f632ed97U,
  0x7c950305f5f22ff2U, 0x64ed35189c1000dcU, 0xe732db08b6e85f21U, 0xbe72fbdbfd56581U,
  0x991818b3391aeeeeU, 0xd916e90a9b22e836U, 0xd3cfca3d1f18a8f5U, 0xb73a33ea1ef70bc9U,
  0xd64f24de5c050638U, 0xeecc16ee1afa072aU, 0xe7f4da0bbffe26bcU, 0x533e092150e81e0U,
  0xac27e4e242081911U, 0xbafed91581b9eb41U, 0xe8a40220e147cd54U, 0xfecabed01dfa5cdbU,
  0x40dc12f8031e1b30U, 0x1327fe02fd8b1feaU, 0xe32902f7eae439d3U, 0xf5213e3099d1e708U,
  0x112bac2c48e7d42cU, 0x909706ef6f29dcfaU, 0xde8116c5ca020f26U, 0x920eddef7194ce9U,
  0x61d91f90df2e3e9U, 0x3413cf2128e80d31U, 0x2dcb0b4c46f9b4f9U, 0xc8e583005a161403U,
  0x1a0324e136c1f550U, 0x2b5823153d13fc20U, 0xa00ee3f900cfdaf2U, 0x11b5e5dd31acfe40U,
  0x2c0c1addc4fe516U, 0xf447f1ed1ebdc811U, 0x1432e6b3b705f7e3U, 0xefc981b6fdd79cdbU,
  0xd5c00d102ae1cd0U, 0xd310815a42e5fc39U, 0xed27259e403f30eeU, 0x719e204c50ceb31U,
  0xad24df0bb617dcd2U, 0xcfe1335de209f9eaU, 0x681885a7092fb90bU, 0x1de5f3ee01130df0U,
  0x4242e191d16251fU, 0xcde40be60122fc12U, 0xe72ef936d8e4f1e1U, 0x32e3131b02f0f919U,
  0xbb2613e01ef3e6ffU, 0xd12df6fefbced7c4U, 0xeffc12e72dfc8110U, 0x8f3ccf412be32d9U,
  0xdcd524e4fce62ce5U, 0x262858dfca5823b0U, 0x11fcbd34095343c1U, 0xd9567f18efb7f8e0U,
  0x5bf2d9161dece9f3U, 0xf658d1dff2bde02cU, 0xbf0146f31a234df8U, 0x4c5ea101dcdcccfU,
  0x1db28138e3bbd1e2U, 0xf1c4f1123d013411U, 0x134809d02336e9e2U, 0x32193a250ffebb2eU,
  0xe2e6cd1e01d438fcU, 0x1bebd616db0ce3a7U, 0xf8e8cce94032fab9U, 0x2e25e8e67904d318U,
  0x43ed2f0335e0d323U, 0xc101123ecfad3bfU, 0x10a6bfc9f5164b6bU, 0xe36a09d6eed4c8b8U,
  0xfd241d0f9523d28U, 0xd13cad126722bedcU, 0xcbeae7c101db0711U, 0x11081681fff70809U,
  0xf81e0eb4cff5dcedU, 0xe51ffb150121e2d1U, 0xc60373af1a2713fbU, 0xdb05f2f876e6c3efU,
  0xf7cb293bd313cab9U, 0xf768c7f5d369e009U, 0xc80af4aec2120d9dU, 0xdeaa810e59f3f1ebU,
  0x203b60f2f191614U, 0x9f9f2e22ca815edU, 0x20ba16cd1acafdf3U, 0x4337fc2fa06dbd7U,
  0xf8fff9d80427061cU, 0xee03ca20f80c5035U, 0xd554cbf3eae3ef05U, 0x8e31ef221091f0cU,
  0x2e0e19242101db81U, 0x29e2c044ce5900e7U, 0x1f24dd03fc00fefbU, 0xcb2d01440cfc15ecU,
  0x25fa0c16cf1f5ed1U, 0x1d2160d3809da12U, 0x4205d0072fe38de1U, 0x2b8c1fe52b00e96U,
  0x28fa0f0aca0e0dedU, 0xfa0a0904e60929f9U, 0xdf1a4d19032dfbddU, 0xfdff1512017f2d17U,
  0x1d9ea01db2f0fccU, 0x1aff29ebe714f5f3U, 0xa9662a1ef6081e19U, 0xf9cb0710f9d6fa4aU,
  0xb725c384d7e967f9U, 0xf0eaa937bc3354fdU, 0x5f071beaff9f959U, 0xf1acd15d81caea91U,
  0x4cf638fa004bd38bU, 0xc1972459d2eb202bU, 0xae27d3f62672059dU, 0x942a21cdf5b9bde0U,
  0x81372ee40fffedceU, 0x1ef80511f6ee67f7U, 0x47b1ff1457025612U, 0x3a3d3f0bb833cf67U,
  0x10c941d81ddb1c7cU, 0x1c337499e134472cU, 0x5a00f2cf15f926d1U, 0x4c1432e5140775d1U,
  0x1aa00825faf3c507U, 0x5fce9ebe6d207d7U, 0xfdce5b1d811c0cd8U, 0xf23ece4e75f0d08U,
  0xbf930625f01220c4U, 0x3098ec4f2aa22829U, 0x11b1170258fafc09U, 0x1e27100b11a9dbccU,
  0x22211cd81f4e3aaU, 0xe9f7e9cfecf40022U, 0xeaf43a22e7b7e4ebU, 0xf42de009270e0adeU,
  0xdae7ffc3eb08131fU, 0x17d02a0016f6321cU, 0xc7bde826feefbafdU, 0xdef0d254ddec32f4U,
  0xa920e7f301136cbcU, 0xc7f23f6c4fde1feU, 0xb4e9f8f1140d3910U, 0x1de0072fdf50f809U,
  0x20e7e00a30c6b0c0U, 0x361c39dbe50bf913U, 0x326f5d312f73936U, 0xdc0d08f2f4db8902U,
  0xf7671df91d0f18a0U, 0xdbfb44a3c22f273bU, 0x1505c7fbb0ce3cd8U, 0x9f63410fcba20db1U,
  0x1fa44551ab1323fbU, 0xc3ebedce04e52981U, 0xafacc4cbad5c4b0U, 0x282cf30ccbe94c02U,
  0xcef921ac99dc4409U, 0x2727d51dd2f7814bU, 0xc7e6d7e263d80ff8U, 0xaecddae9e615bbdeU,
  0xf7e5353deffdfb3cU, 0xdba1e073911d73fU, 0x112aadd4d0e112f5U, 0xd90c1c522df5c609U,
  0x4030ff0f47f11e9U, 0xd08bd4273c008b2U, 0xf7cfe2c1f4e4cfffU, 0x24ca1c18fd13cd2eU,
  0xc60ae50be601dc35U, 0xde81710b418e515U, 0xaa88af10fecc01f4U, 0x3100be052e35c71fU,
  0x1c0442190be7d8eeU, 0x10fa088c2adb53ffU, 0xf8bcd13d0cf3bfeaU, 0x2d0042dfd348ebd9U,
  0xc518f7e9401a1c19U, 0xd1d309c527fbd720U, 0xc526083823420bd2U, 0xc4c7e70fe136811cU,
  0x109631c2163306cfU, 0x21e61911f5202c33U, 0x1444beffe7da4ffeU, 0x9a21bf1cf81f34ddU,
  0xe4c517c9c012d0f5U, 0xf3501f81dc3b20fcU, 0x10b82bed1b075b00U, 0x1eecf8b7cd0ad517U,
  0xb92b3f1ffa04b8faU, 0x6c5e41d04143508U, 0x43e1fb9fbeaf0b0bU, 0xca191051d8fde34eU,
  0xa8acef7fa0a60c47U, 0xfcb5e2732b3cb296U, 0x58e27ad1d14b2bb0U, 0xfd3e86b495fb369eU,
  0x1ae316050fb624cbU, 0xd90c0225f8d30fb6U, 0xa1f90a4d8179fb31U, 0xdce6b300e91e7a9cU,
  0xacad8bbe12c2fd8U, 0x1cfb1a1012d232a5U, 0x911cebccd7c32ed7U, 0x39edf9b525ef16f5U,
  0xee4ab22fc10ff05U, 0xb1e4d9ddf3fc050cU, 0x14ebe8c59ede0511U, 0x2503cc2207f2e016U,
  0xfe0cf941bcbec4caU, 0x29edec27deec4811U, 0x4053315d92de2ffU, 0xc100305078118d3U,
  0x3130c9f1e9e8108aU, 0xbfdddfb2d0bae75cU, 0xfbd11ce31803eb1aU, 0xdeebba0c01cd0d04U,
  0x36cb2cbaf22bfaeeU, 0x4f1a4025dc81f9ddU, 0xe3ce1d1b0532f5ebU, 0x70b572296860f2eU,
  0xdef5dad8f2540237U, 0xf6f03481d8161eecU, 0xdce010e17ebededU, 0xf81f01c62d2914f5U,
  0xf50312feccf73629U, 0xdaf0edc6b7eb0d21U, 0xdfeff5192609f6e2U, 0x2d0b0a0cddf4e91eU,
  0x25a78105214e2866U, 0xb6e4d5ead809e8c5U, 0x1af1a43002e2f1e4U, 0x383ef113ec19d140U,
  0xdcd1f80f0cfde7dbU, 0xd1f9ed972a11f1edU, 0x1be12e2dcbff36baU, 0x39f8dad8f3a80701U,
  0x18dee835da32810aU, 0xf9e1ee23fddc3228U, 0x10e8c4d02ae2042aU, 0x2113ccfd0ae8c315U,
  0x2916dc0d01f6405eU, 0xf008cd180f1821e5U, 0x26cf1b2522f9f538U, 0x280326de2606ea2aU,
  0x3aefe62455d1eff2U, 0x207fb81e1ee2491eU, 0xc23040272047f811U, 0x563dece3f4f825d5U,
  0x3f49d24f15f9808U, 0x85401124e5f8ddb7U, 0xc203c13d1f16ebecU, 0x143bb10444f327d8U,
  0xda223eca97bdf61fU, 0xb8d6afd610ed59f5U, 0xa1747dcbbd10ae7U, 0xf51960261096cb12U,
  0xf0010916ccd4cc18U, 0x1738f50cb5d5091dU, 0x2ef72b3bd9812deaU, 0x15f5241127d2fedaU,
  0xd6be1af026bcfb29U, 0x93ef153360f24e6U, 0x11eb16c603f42cecU, 0x12131500aefc09feU,
  0xedd9f22cebdd05bcU, 0x3ef507f5adf9522fU, 0x4ad2d33f0f5981f9U, 0xd20900c1f2eadd03U,
  0xdf2b541f933f5daU, 0x14d7dc37c7d60832U, 0xfeda0bd433dce4c1U, 0xe406f21904debe05U,
  0xfc2703fcb1f803f4U, 0x31f3df1a3d1ce815U, 0x1a7fd628a4db1115U, 0x13cd080b21dd00c3U,
  0xc79fcc98404afb26U, 0x516cb97aeffcf40U, 0xfb81d25ce10eb704U, 0xcef403ff0e0f19b5U,
  0x2ec918e33044f64aU, 0xa8f22dcaccd003dbU, 0xc21f1eed04d9eaa7U, 0x607f9fbd624b00eU,
  0xa7f148d5e8ef7183U, 0xd60d0716daf20e0fU, 0x211a15053f281bafU, 0xba4cdb39c42908d1U,
  0x45d02a0ec44c5d5aU, 0x4f46ff810cb33c08U, 0x9a1050ae9223208U, 0xfc170c10c32027b0U,
  0x3119d33ad7ecacf4U, 0x9f9aea0312e6134bU, 0x46d6412924d1e03fU, 0x4647fb6324121216U,
  0xe6d73014fbf84a36U, 0xdf1aa6d82e04e3d5U, 0x7421e72ef2bfd600U, 0xe507b3812fdb63f5U,
  0x1704cac513ca28d6U, 0xeee7f2010aea66d8U, 0x44092829221123bfU, 0x57da2235c97b81e0U,
  0xffff0a2401391be8U, 0xe2c9f90fd3f50805U, 0x3ab8f4082020fcc5U, 0x2df0f7e9eddb1255U,
  0xeb07e81e3ff02a00U, 0xdde7f40db7c91b2dU, 0xdf97fd3917424742U, 0xb26c20cbe33f2a6U,
  0xc504cac742f50914U, 0x27dc54a2ebe1fd07U, 0x2039fe400581fae9U, 0xca57e3e3c0edbbfaU,
  0x77d9f0eefbd416f1U, 0x69580ceffddaecebU, 0xdce603e01922f0f8U, 0xf83c1fef5b23f2d3U,
  0xb0fad6480b43e4d3U, 0x56d1d01df4f9d11cU, 0xe60d092af1fb6506U, 0xd6a68102e7feba54U,
  0x5fe1400007bf3fd6U, 0xc6ece8c41ce01806U, 0xe91a1118071120cbU, 0xd4fbe1f9f7c313dbU,
  0x3be27681290720deU, 0xfb17fbf7fa042faaU, 0xb2c23a5b2b49094cU, 0xe2cc070ae5052014U,
  0x23a244bacb1e0bfcU, 0xabfe05ead54e080eU, 0xf9a412fdf3024af8U, 0xdb3200f3090953feU,
  0x27237402ab11ce0aU, 0xdbcf34ca179e2a03U, 0xfefc414a81cbfa2dU, 0x1e17c2e6a6f5f907U,
  0xb83c2a8101210bf4U, 0xf1d78220abf4b014U, 0xe69145924d5e50fU, 0x10d2c2f13932becdU,
  0xe9f4a71d2ecf21c0U, 0xc0c2913710fac035U, 0xd4e446eeea0dbc39U, 0xd5260bfd0c1cbf63U,
  0x3c2c1fd1f20e1df1U, 0x2e7fa73b28f5f832U, 0xff132421ffc31ae8U, 0xfc1d20e3250001dfU,
  0xcfdf04e0fa26e015U, 0xf722effa09ef083bU, 0xf9c3f40a240d1cffU, 0xd8e7da0a0de2f119U,
  0xdaaaf0a638d48747U, 0x1ffd2029e3dc5be7U, 0x10420f71700d853U, 0x1517c3cafa1a1053U,
  0x130e6deed9f281c1U, 0x11c5c60b8d090514U, 0x12ddcfd007a7bd0dU, 0xf4612ac7cdbf2abbU,
  0xf8168edeaff1ab5U, 0x4210fff1cc212601U, 0xddfd073600fad5ddU, 0x221627b23c3ce2b3U,
  0x528d718f37cdee8U, 0x3901d8105c0afa0eU, 0x7dd3e0f0623bc44U, 0xd0a9d9360be3f666U,
  0x13061801d026eecbU, 0xcfcfae372f0acfb2U, 0x2711020ce4e004d8U, 0xeae91a42292503cfU,
  0xd9d4cb31c3e8f6f4U, 0xfe59f518bdeb1481U, 0xff01aebfaeb1dddU, 0x1ffbd423480838efU,
  0xfcb13dfcf6f809bbU, 0x5e4cfafb0203de0U, 0xecf9f52910acbbe6U, 0x2803d7f252d91bb3U,
  0xfed152f1e7f1f436U, 0x1cd4042d09f5c403U, 0xfcae7fd9e635e706U, 0x2cc0ead7e91e3a30U,
  0xe8eff020000344deU, 0xf98d06de30d6e211U, 0xd8470120a800f0e9U, 0xfbc30d28191ee1dcU,
  0xc811f2f99be32223U, 0x4f422104c514f0fcU, 0xe57f1533e94d0540U, 0xcfeaf71ef0f5e6cdU,
  0xe6c6ebcacbb570a1U, 0xcd37d0ed18df3ddeU, 0x10ff7fb9b03252e8U, 0xfcdfb0d7dc03fcb5U,
  0x25121919d8dff536U, 0x38d01bd4aba873dfU, 0xdee53525fc350645U, 0xa7c8c417221a1bd2U,
  0x31af751cfc31fbb6U, 0xfa47d901f1cd291dU, 0x810c493fd726bf28U, 0x35ecfadb400ffddaU,
  0xcf162ee21c1c3ae9U, 0xf2f10af50721e4d0U, 0x1afe00ff22ab01e2U, 0xd94af5f80ed7eff9U,
  0x101b462cfbccc30aU, 0xe3be12812930200fU, 0xe01bf6e8423ef818U, 0x32ece3db1a4617adU,
  0xe3f31bfa00ca153cU, 0xfdf5ce0911fedbefU, 0xb6012538415efb22U, 0x59bcc83aacd3c8e4U,
  0xf27cf8a6eef20cb6U, 0xf3ed00843bdd2f0U, 0x5c24f7fd3f12f56dU, 0x14dea6d5222245a3U,
  0x35de3d274d7f2a4eU, 0x6c010f2d10b8c916U, 0x35dcbe2086172f06U, 0x2de4ae26c27326c2U,
  0xffffe8cb000012beU, 0x898000016e8U, 0xffffef190000121bU, 0x34970000020eU,
  0xfaa000008fcU, 0x1d50000004a3U, 0x163b00002269U, 0x68d00003203U,
  0xfffffef700000e3fU, 0xf7c00000debU, 0xfffffcdc0000228bU, 0xffffe913ffffff03U,
  0xffffba8c00003992U, 0x288f00001887U, 0x2e57000003f7U, 0x1de700001f9eU,
  0xc7e000004c2U, 0x26a2000026f4U, 0x3da200003676U, 0x2b3a00000de8U,
  0xffffecb4fffff76fU, 0x71500001fdcU, 0x381e00001255U, 0x2b4fffff208U,
  0x13d8000000caU, 0x65a0000013bU, 0x265300000e63U, 0x2374ffffefc9U,
  0x1a56fffff627U, 0xd380000211fU, 0xfffff67f00001bbfU, 0xffffe88300000f89U,
  0x70f7ac566d71ede5U, 0x81fc4e220407ea01U, 0x99f01c0481eac4e6U, 0xbef7ec01b8845199U,
  0xdf13153dd1463620U, 0x81cb7f01f3442dc3U, 0xe81a7b2e1e27f714U, 0xd1d79f4cb70de851U,
  0x7ffa28de7f139ee7U, 0xc4fcd49271e78d67U, 0x99e9dd7fdfbe0bdfU, 0xb9bef3b5c5ae1ae0U,
  0x7fd40938817f5152U, 0xe48162647fde121fU, 0x6f19eb1b3b7fb7baU, 0xe6bd817f08c6c57fU,
  0xfe6a45c2b7fd3bbU, 0xb1900bfe3fdff05bU, 0xf6f7f65cc5ec69c9U, 0x5a564d98199fe83U,
  0x9ee9d17fab417f37U, 0x8cc90367895a1a81U, 0xe927b6101d2b5506U, 0xb2d8bd4541cfc028U,
  0xfbf89826ff6be5e7U, 0xdf184c2b09ee3adcU, 0xfdfd2f20a610dc1eU, 0xb0e75eecdbdc56b1U,
  0x81d5f2e60c340130U, 0xc4ec2702b7111acfU, 0xebe6560b01e925fbU, 0xe5daf606e430b04eU,
  0xcffd3581062fbc81U, 0xcf19d8f950f97ff5U, 0x100d2fb1bf1b0e1aU, 0xea007fe09802da99U,
  0xc7b553d4f825fc61U, 0x47ce9f7f0f1ac219U, 0x9c7ffcdf1ef2efcU, 0xebf714e0f3b18953U,
  0xd4a8ed04075c98adU, 0xe0bbef3400212d3fU, 0xe8ee2224c24b14ffU, 0xfaab7ef59acf2981U,
  0xf8f2c8fbd321000aU, 0xa501075fef62f38cU, 0x616fe0e06017ff9U, 0x7fee132b39fe813aU,
  0xdcea178a11e5fb2U, 0x189c7f7f2f221bd0U, 0x451c32fdc133aa2eU, 0x8181f94bad7f7f2dU,
  0xb57af007340c07b6U, 0xea0f7f191687041bU, 0x7e97f1ebae7cd7fU, 0xc151fe078154d997U,
  0x368181cdd21b7fe2U, 0xd9aa405b7f7f1530U, 0x7fdc7f07987f0881U, 0xaa518b24ef5d020dU,
  0x387f0b0014a9c881U, 0x58e12efd928181f8U, 0x81580c7f8109e42aU, 0x7e7f17ef303c838eU,
  0x31ea8949101f26eaU, 0x681f66eab6b1e7fU, 0x1c81553181537f09U, 0xcce7ac7fd257714eU,
  0xbf6581fabaf4efb1U, 0xafc5c439844cdbbU, 0xd07f3a2eb646467cU, 0x6235fef3547fde9dU,
  0x146900004042U, 0xffffef1fffffcd16U, 0x502cfffff2c2U, 0xffffdbd900003b83U,
  0xfffff10bffffd583U, 0xffffc0c9ffffeac3U, 0xffffe008ffffd681U, 0x3637000038d4U,
  0xfffff690000014d9U, 0x6586ffffd81aU, 0xffffd0ebffffe34dU, 0xfffffe830000164cU,
  0xffffcdc30000394eU, 0x5b1200000d1eU, 0xffffe611fffffedfU, 0x43da000033d8U,
  0xffffe58efffff81dU, 0x27b6ffffda5eU, 0x157effffecedU, 0x32a5ffffeb12U,
  0x1c9300002f28U, 0x2187fffff867U, 0xffffc8b3ffffb086U, 0x29e100002eadU,
  0xffffe717ffffee91U, 0x1c15ffffe37fU, 0xffffd93affffe199U, 0xe87ffffee33U,
  0x6ce7ffffe4b5U, 0x494ffffee84U, 0x1ed2ffffe8c6U, 0xffffefddfffffb15U,
  0xdf10e91af8d5a946U, 0x428e8ecc2ad4f1fU, 0x4fdd3b32b002104U, 0x2fc7aff5557c17f4U,
  0x4ddcd850dd044ed8U, 0xebffd8cbd0e1ded4U, 0x38d0ec29611f0701U, 0xdc7ff70bfdfb38f0U,
  0xc3f431f43de802f0U, 0x1a0608e2cbed0cc8U, 0x75c2242b5ecd3afU, 0x3f811a28153640ddU,
  0xa4c8f9f81c1d2a0aU, 0xb413d8c3c5280a08U, 0xbed61aeb05d0ff14U, 0xefc2150a234c15fbU,
  0x1ad5ae1baa1427f2U, 0x312f21280d20ededU, 0xe83ec619534bbae2U, 0x26c5eb2023df4dd3U,
  0xdcf8d3e623f92501U, 0x1981dee22730e5f9U, 0x94c40dc0e1837b7U, 0xb2fe8c1f5f5e71bU,
  0xef4b3023e5dbeabaU, 0x7bd92a8139db0e6U, 0x4ae51426eb2c1655U, 0x96fa1a08ee21d3adU,
  0xf3f54522d30f3ed2U, 0x39e4f3ace1ea0230U, 0xf5ebf4c3d5271673U, 0x24fbe446e3d8cb81U,
  0xd0f72d67e4dcec15U, 0x165a1dfbe0d5c1f5U, 0xffdcfffb4edb02e7U, 0x4bd4d519fc1fb1ebU,
  0x12e2d3c4eec5d5e9U, 0xf11803e2290be9d1U, 0xc43b28f3bd2ad5e4U, 0xbdedd381ee46dbe6U,
  0xf28cd016104d39c6U, 0xbfeaf6bae1b4f6c0U, 0xca1fa21bdd46302cU, 0x148aad9eb2dd819U,
  0xcef632f5a0cdf4fbU, 0xfe7fe301db16eefaU, 0xdfc59bc6fee2ff56U, 0xc8c625e31cf794ccU,
  0x20d903df44152a3fU, 0x4e00f64e580cf918U, 0x9042f2f4fe9f6d1U, 0xeac909814a59ce04U,
  0x12202ebdcedcec49U, 0x5393901233f02aeU, 0x4b3be93765e2fab2U, 0xfd08329f25242841U,
  0x3224142117c311e6U, 0x4adaf71c1ec8ecedU, 0x2706ddf022030b09U, 0x12ec0304c6b8dee5U,
  0xe0f21f6c0b4dfcfU, 0x46093a0a34f819e2U, 0xe60c0df6eeefcf24U, 0x1281e9fd060fbcU,
  0x5cfe2910ec0de0d8U, 0xd12f0506edc1d114U, 0x2df5efced2f5e8efU, 0x27201001e8c1de0eU,
  0xf40d1abfe9810db0U, 0xe55630120a1b5af0U, 0xeed3e5cee0c5097dU, 0x16328d972a1df4f6U,
  0xa8ed123206f9f27fU, 0xb25ecf1e2feb819U, 0x22f2141612eb08c6U, 0x1939efcf8308acd5U,
  0xc0df4cf08f10225U, 0xffdbf43218eefbd8U, 0xe2033d21fc0ce514U, 0xdbfcba07d62834eeU,
  0x122233845cbfc00U, 0x515db9ecc2612f5U, 0x4102e22109ce2a5aU, 0x27e84b450efc2d1dU,
  0x1a3df94d27012b18U, 0x2ee7a8f008abd619U, 0xacc904f6130ab3f8U, 0xd5098169ab59f0c7U,
  0xcbe0052cb3212510U, 0xdc32f6fafb1917f8U, 0x27e31ab516eb3307U, 0x10390651ef2803e6U,
  0xf4163a7fe777c1edU, 0xf516fb0e0624093eU, 0x2dfafe19030be5ebU, 0x43460206e2ffa232U,
  0x3fc174e623facf35U, 0xeb30d0b2f4f5a949U, 0x419e21126e1ebffU, 0x280b65f290cde4beU,
  0x423b0908fcd92306U, 0x2b9620089da91e7dU, 0xe9f2e7fad381ad34U, 0xf965122ad2f8cdabU,
  0x280e28da05ecec18U, 0xeacd1a02cfeffa21U, 0xd2eb1710eaea11ecU, 0xd80bc8ecfc14c7c8U,
  0x2114312adbd3f00dU, 0x6581301e3ff80741U, 0xe62b132e11e6dac9U, 0xd724012fcd5c3522U,
  0xd6051e091c1004e3U, 0x121531e5f7be19e7U, 0xe8460cee0906c448U, 0x6fe39fe381e7ffeU,
  0xe9f6d3051516dbe7U, 0xad0f1405091e22efU, 0xeffeb41c05004f2fU, 0xb0e0347150b4414U,
  0x43ad140edc3225e3U, 0xeb3c1397b6faf5d5U, 0x1befcef4d43c1814U, 0xc001c53a092ced26U,
  0x13f42718ead4f707U, 0x25eecbf2081ce81cU, 0x81f32cdcf421fc39U, 0x552f1217edcabf2aU,
  0xc41aba05f30762d7U, 0xafddff14ff84f30fU, 0xc72446e281efc1fdU, 0xd7d1e327290f002aU,
  0xb0b0030ee7272c48U, 0xbb30dfd1f13dc15fU, 0xedecda9dad28912fU, 0xeddf1700480c95c9U,
  0xf50d8c090142c0bbU, 0xcd8d40cd712303ffU, 0xf33e10d1a9da3417U, 0xf90b08c21999021dU,
  0xe4db59f08198e3adU, 0x7520a415ad0d2f6U, 0xedca1bc390fed235U, 0xed000eda1bfc08fcU,
  0x6c0d1cf01cecc57fU, 0xfedcdd064118d240U, 0x211e1f4c03f3f727U, 0xebfb2a203a041409U,
  0x2ce9eec59f980f5dU, 0x3aecefa3f5e9eeddU, 0xfe5740186453d8d1U, 0x2ad6200eaefa374eU,
  0x2624ecfe333ecb1bU, 0xd19e18e914f13f1cU, 0xf61905e6c7a3f81fU, 0xedaae2ffc027f4e2U,
  0xdae441defd9d1bc8U, 0xa50bd0f905e8bf51U, 0xd7f311f49d18cbe0U, 0xc6fd14df0981e922U,
  0x573afd02207f52d8U, 0xebee0413ec19291dU, 0xf9c7f4fe04500410U, 0x2b24fde4cb17e0eeU,
  0xaf0d01f43dd4f805U, 0xd801172a08e3ee2bU, 0x9a005cbc2ca4d5c5U, 0x60f33b019b3016fU,
  0xffeedcf0f05121c5U, 0xe2db1cca3817eaf2U, 0xde39e70b081c1f15U, 0x5f618e2d1262a06U,
  0x12f20f03f7fec722U, 0xe57f0521230816d8U, 0xf4f51606f5314133U, 0x2fafba5390719ecU,
  0xaa005648ef15c212U, 0xc04aff61190d2b3bU, 0x1081290301c5d303U, 0xfcebca01faaec9daU,
  0x65ee831ab209e2cdU, 0xc56acf3d45848U, 0x2eaf9b15f0bcfefdU, 0xdb37bb1ad41816eeU,
  0xf9f42f2cc60ee832U, 0x131a11f5ee0d1833U, 0x54252a81bd270d08U, 0x100dd878ea18edf6U,
  0xf8fd4fc531d015U, 0x5fdfce920f2be2dU, 0x3b392ad50a58e4fbU, 0xefd717c8def3f2faU,
  0x4d1a2e39edbfe5c2U, 0x392dcec04ac3c13eU, 0xf3f1db0ddfe8eaa8U, 0x4beec51a13bc0c36U,
  0x5761518ef9c6c197U, 0x10f82b2a092855f8U, 0xe1152843d1c2e37fU, 0xec6599d017e0d7f7U,
  0xc8d8e7c2f60cf9bfU, 0xf74819441545eccdU, 0x3518390a21fda127U, 0x12142744f8cbec07U,
  0xf2f7913933e52fb5U, 0xb4c80b9ffacb0b65U, 0xe6c4e8f144140792U, 0x4fff0c1c21811c1aU,
  0x3f7333b31da01bd2U, 0x1f1ecabf18faf516U, 0xcaed26531d0f44ebU, 0x606fcadafc5ccc8U,
  0x3647f6a8b3faad24U, 0x4d901c01cbfb49f6U, 0x81baeb348eeec9fcU, 0x94b0f0edf3f65b3U,
  0x4b5de4655ff4d726U, 0x4c32d04304f7db01U, 0xe1d4b9f572e5d0c2U, 0xe9dbe52aedf295efU,
  0x9fef0081da0e1750U, 0x167430281aa4a5b1U, 0x4e4628b8facf54baU, 0xcd4ff3e441c82f30U,
  0xb2dca5c82d3706a6U, 0xfb1a02e5edfa22c2U, 0xce10e4016d0b1832U, 0xb9fefae9d251baeeU,
  0xee1ced1dcf45e0d4U, 0x4c06ac5c5d0b1410U, 0x230604cc0d447f59U, 0xe70b3be4d4cf07dfU,
  0xb3891adeb5c1b2c4U, 0xa33fda2dc56219ceU, 0x39c531d640e33746U, 0xdd22e526a3dca6a6U,
  0x3eefc2221d15dfedU, 0x13a6e0d3bf90ff17U, 0x41f34e31b520bceU, 0xd032ccd810e4f44U,
  0x4e22f281901fc1aU, 0xf4df411b01d4d6a7U, 0xec36cdd546f3d334U, 0x56baf537e1c6f2d4U,
  0xcfefc0fe8ec10ae0U, 0x2a39500323f2c336U, 0xfc1a06fbe31e29e1U, 0x81e8cf85240c11afU,
  0xf4c126f6cee42efcU, 0x341a3020f0eb58d4U, 0xf56e04dfff12260cU, 0xb7337aa6705b6b7fU,
  0xcc0cf818aa04efe1U, 0xae00ea37173ec9caU, 0x1d34ec4d69203c6bU, 0xab131df1c7534013U,
  0xee4d7fb72a510822U, 0xd01286b35d2bf753U, 0xd3afeb493303400bU, 0x3fefb1b8f2bc010dU,
  0x3f042c1ad4ee2ff1U, 0x44891906df062f07U, 0xc1a2b6491334fdf6U, 0x2125c948b1c6eff4U,
  0x8139d3f9a0fe035aU, 0xf3200327022a381dU, 0x380758a3bcea0bd3U, 0x3dcfded6d3d3d5U,
  0xf299092cd920ddd8U, 0xf5b2d4e65df4c2d2U, 0x3d1415392b46e9bfU, 0xe7f62153c919d035U,
  0xd7f3c901ff8e612U, 0xeb10f5d43fb1fc48U, 0x1f272a2ee427e9ddU, 0xfddfd51a00c93aeaU,
  0x28e8f7dfd4f63abaU, 0xe41f52a5f9fde742U, 0xf6d9ecf2e506e03fU, 0xcbe127bc0df61ba1U,
  0xf2af0386caa2e0eeU, 0xd41ab6f8287c1b4cU, 0x9c760a65e30f964U, 0x30cde958e6d1d1bbU,
  0x3841bc1b25e1f729U, 0xb0d6021381c22e04U, 0x83de22182bf8f085U, 0xf4f91604bcd8f54fU,
  0xb5ccbd7f0a1df7f3U, 0xceb5ec2bdab34ce2U, 0xf0e0bfc8fffda1aU, 0xc9df102e0a571bc2U,
  0xa29270c4703e5deU, 0xf01ac8c255d51170U, 0x39fc0bb5e412e20cU, 0xedd1701eb1fa4f8U,
  0xf3c968ebfa1efac5U, 0xe077ca2fcd0b0538U, 0x4ab318d42dbf1a3eU, 0xf2d50d28e9c9ff81U,
  0x2ae9c0243944b7b0U, 0x21c49fc348a92625U, 0x18f657140f1509f2U, 0x393cd0c08633d9bdU,
  0x2ff9081d1aa1162dU, 0x9edf9f407d5ef34U, 0x11f5f61e14ebcfdfU, 0x1a04fee39b0bdf43U,
  0xf07420b801a61ffaU, 0xf9d8415ea50e6415U, 0xc5e6af7f07baddd7U, 0xdc361d02ff6b0197U,
  0x3e02510ccfe1edeaU, 0xf4ee16ed17b7b529U, 0x27bce80215f7e7c2U, 0xdaecf9e6ede5f51bU,
  0xf3ef9e3fff6f3f5U, 0x26e8481b271b3de6U, 0xf5ebd52bf681be11U, 0xf536df022822d8c2U,
  0xe410021347377f09U, 0xe3e23ad69fd1dbbcU, 0xe401f52d3529d9c2U, 0x20370ef82fb10161U,
  0xa7ccd641eb3d1bf5U, 0xe8532e29025b09e4U, 0x337970fe6c82af3U, 0xe5e3f23a3a3415f8U,
  0x90c8ecf0eb4f24ddU, 0x89ec23bb0d0e074bU, 0x180906f9a953e00eU, 0xb68d90d18e555bfU,
  0x3d13eee81c3a85aU, 0xe56e24f0f816880dU, 0xfcf3ec601effce1eU, 0xb4fb49a60503e5c0U,
  0x2f4b26ce3792ed1cU, 0x3efd52ba140ac959U, 0x27beac23fded3816U, 0xc3f6e103d79eb08bU,
  0xfdf7e3d38681d1d8U, 0x6cd6cd2013f4eb27U, 0x13f53469be05cd13U, 0xedf9c43f2556e25fU,
  0x1c12181d34ca3d28U, 0xe62fde25f8c48142U, 0x142727f2f1172a07U, 0x52c709e610d31117U,
  0x1e38eba59cbb0417U, 0x35382b1116e2190dU, 0x12352d3011e92305U, 0x2a54db05f1d6d7edU,
  0x10fbf0d5e3fce404U, 0xee0ff9ff3cf43114U, 0xd9f7143c170907dcU, 0xe6f41f0d0030d6bdU,
  0xf4eb1bc114167ffbU, 0x21de6f6d35015U, 0x9f4ef01621ae6fbU, 0x382e382404e12e0cU,
  0xe4141cc40930ea62U, 0x858b71f380c7806U, 0xf8e32f0408cada02U, 0x232fcfe856e32af2U,
  0x1e2adbd0d42f1981U, 0xfec5691104062e01U, 0xf9e1122ee312071aU, 0xcc25dc46eae64c1fU,
  0x5accdb070bfdd52bU, 0x703be1f3514846e0U, 0x31f6f8df12f9e174U, 0xf10215fc48a250d9U,
  0x51f6e0e08d08602U, 0x2019ec5b10157f82U, 0xe47dea52f31469f8U, 0xc62ada1b01e20ff5U,
  0xde22b9f72b2db4U, 0xebf2f4a2ea3e9dc0U, 0x564bcc06fc1d0a58U, 0xe230c4cb14d5fecU,
  0x811cc40dd70bd921U, 0xf153e60f0311ebbfU, 0xc7dff125ebf80c4eU, 0x4862feaf21dfd6d1U,
  0xbfe340bf75462ddU, 0x81fa28f0241f1ed8U, 0xdbc4e1cdf8f72dacU, 0xdacf0060beef078U,
  0xd36239560aec10feU, 0x4e8f43adb0dd521U, 0x6f11703a9b996e8U, 0x1d0eee5002f24e28U,
  0x99a21b1f5abe534U, 0x35e7ee322f55c021U, 0xded138f65af1b855U, 0x7fc316c5d2e6d6f7U,
  0x90079ad00aa448b7U, 0xf25b4ddfcc0efc1bU, 0xdaacb4fe2bd6def3U, 0xfddcb8cb2558e089U,
  0x15e32eea0efcbb27U, 0x30d3c8011ee3f335U, 0x1b131e4cfde8a123U, 0xf48b6ed9d0d9cb1aU,
  0xef27e0c0caf07fefU, 0xf314060ce5290304U, 0xf6f6d328b5c450ccU, 0xfa4df5c623ebf318U,
  0x2f3266e112c9bcbfU, 0x583af69bccd5c9eaU, 0xc5cfc407cd2b01d3U, 0x4e0c5bed2c742e9U,
  0x2c63daf1d1aacdb7U, 0xeab0daee2ffa2731U, 0xbd70271c9c1add6U, 0xbf6fa26e277f3738U,
  0xdcfe1f1f28e701c8U, 0x3fc83ac4fdea39eaU, 0x7fe224e5d3fbf8cdU, 0x43024c41d0b3ec1U,
  0xe9d50b271821555cU, 0xc106cae84a282ce2U, 0x1405a7dce5e4f414U, 0xd42d2cd25c38b00cU,
  0x13d2100dd903df10U, 0x4028c17326e1e018U, 0x2714161e27f781e6U, 0x35a72537ece0c612U,
  0xbb48c60e0bfd59c3U, 0xdee913c421fe47e0U, 0xe70a1dfa4bff00d5U, 0x3851eebbf9b5ed13U,
  0x1d4e6f350f03c2eU, 0x1de5fff126d80afbU, 0xc328f5e1d881f7b2U, 0x2decfbdbcdc0bc5aU,
  0x2d15cf921fa1de7U, 0xffd5d92f313231e1U, 0x1df43ffd003cc60aU, 0xdb01effb39cc29b8U,
  0x227d41f029461417U, 0x261aa4fe5009f633U, 0x21cf421f46fb1fd4U, 0x7e6e4abe1b9230dU,
  0x59bf24053bf0ed0U, 0x8313ce5f2eb3d20U, 0xfb81c30c11e4fb26U, 0x53095eefcf0f4d4U,
  0xf634ee200ef22868U, 0x22e9e4fa5aaf6623U, 0x98612010282d3398U, 0x7e2681f5171843e9U,
  0x38287f27dc2cb3d8U, 0x9af3e0b23325ab5U, 0x22e75b3e02133c42U, 0xceb35c07f73b47d7U,
  0xcfe1e5cf327fd4U, 0xd2ec0b22f9a2d0deU, 0xacfea0a1f000cf9U, 0xcd28f4c8f61f0321U,
  0xec04d90ae625d317U, 0xb44c094dfeffd23eU, 0xf63adb0ecad219c9U, 0xdede2af83710cfd9U,
  0xc44101f6f1b6bcf6U, 0x1ed1f3def10cbf0dU, 0xf0cef05ffddddedU, 0xe563d4fabce23ef8U,
  0xbaed555dd72b97d6U, 0x20d015f92c562d07U, 0x24f92d07993e037fU, 0xcfe0ce030b4ed3f2U,
  0x3ae9ebe30dd82127U, 0x2381053cce2afd25U, 0x2df93277198a4ac4U, 0x2826400c3c58e117U,
